{
  "version": "1.0",
  "truncation": null,
  "padding": null,
  "added_tokens": [
    {
      "id": 0,
      "content": "<pad>",
      "single_word": false,
      "lstrip": false,
      "rstrip": false,
      "normalized": false,
      "special": true
    },
    {
      "id": 1,
      "content": "<unk>",
      "single_word": false,
      "lstrip": false,
      "rstrip": false,
      "normalized": false,
      "special": true
    },
    {
      "id": 2,
      "content": "<bos>",
      "single_word": false,
      "lstrip": false,
      "rstrip": false,
      "normalized": false,
      "special": true
    },
    {
      "id": 3,
      "content": "<eos>",
      "single_word": false,
      "lstrip": false,
      "rstrip": false,
      "normalized": false,
      "special": true
    }
  ],
  "normalizer": {
    "type": "NFKC"
  },
  "pre_tokenizer": {
    "type": "Sequence",
    "pretokenizers": [
      {
        "type": "Whitespace"
      }
    ]
  },
  "post_processor": null,
  "decoder": null,
  "model": {
    "type": "BPE",
    "dropout": null,
    "unk_token": "<unk>",
    "continuing_subword_prefix": null,
    "end_of_word_suffix": null,
    "fuse_unk": false,
    "byte_fallback": false,
    "ignore_merges": false,
    "vocab": {
      "<pad>": 0,
      "<unk>": 1,
      "<bos>": 2,
      "<eos>": 3,
      "!": 4,
      "\"": 5,
      "#": 6,
      "$": 7,
      "%": 8,
      "&": 9,
      "'": 10,
      "(": 11,
      ")": 12,
      "*": 13,
      "+": 14,
      ",": 15,
      "-": 16,
      ".": 17,
      "/": 18,
      "0": 19,
      "1": 20,
      "2": 21,
      "3": 22,
      "4": 23,
      "5": 24,
      "6": 25,
      "7": 26,
      "8": 27,
      "9": 28,
      ":": 29,
      ";": 30,
      "<": 31,
      "=": 32,
      ">": 33,
      "?": 34,
      "@": 35,
      "A": 36,
      "B": 37,
      "C": 38,
      "D": 39,
      "E": 40,
      "F": 41,
      "G": 42,
      "H": 43,
      "I": 44,
      "J": 45,
      "K": 46,
      "L": 47,
      "M": 48,
      "N": 49,
      "O": 50,
      "P": 51,
      "Q": 52,
      "R": 53,
      "S": 54,
      "T": 55,
      "U": 56,
      "V": 57,
      "W": 58,
      "X": 59,
      "Y": 60,
      "Z": 61,
      "[": 62,
      "\\": 63,
      "]": 64,
      "_": 65,
      "`": 66,
      "a": 67,
      "b": 68,
      "c": 69,
      "d": 70,
      "e": 71,
      "f": 72,
      "g": 73,
      "h": 74,
      "i": 75,
      "j": 76,
      "k": 77,
      "l": 78,
      "m": 79,
      "n": 80,
      "o": 81,
      "p": 82,
      "q": 83,
      "r": 84,
      "s": 85,
      "t": 86,
      "u": 87,
      "v": 88,
      "w": 89,
      "x": 90,
      "y": 91,
      "z": 92,
      "{": 93,
      "|": 94,
      "}": 95,
      "~": 96,
      "£": 97,
      "¥": 98,
      "«": 99,
      "­": 100,
      "®": 101,
      "°": 102,
      "±": 103,
      "·": 104,
      "»": 105,
      "Ç": 106,
      "É": 107,
      "Ö": 108,
      "×": 109,
      "Ø": 110,
      "ß": 111,
      "à": 112,
      "á": 113,
      "â": 114,
      "ã": 115,
      "ä": 116,
      "å": 117,
      "æ": 118,
      "ç": 119,
      "è": 120,
      "é": 121,
      "ê": 122,
      "ë": 123,
      "í": 124,
      "ï": 125,
      "ñ": 126,
      "ó": 127,
      "ô": 128,
      "ö": 129,
      "ø": 130,
      "ú": 131,
      "û": 132,
      "ü": 133,
      "ā": 134,
      "ą": 135,
      "Č": 136,
      "č": 137,
      "Đ": 138,
      "ę": 139,
      "ğ": 140,
      "ī": 141,
      "İ": 142,
      "ı": 143,
      "ł": 144,
      "ń": 145,
      "ő": 146,
      "Ş": 147,
      "ş": 148,
      "Š": 149,
      "ż": 150,
      "Ǝ": 151,
      "ʼ": 152,
      "ˮ": 153,
      "́": 154,
      "̊": 155,
      "Β": 156,
      "Λ": 157,
      "Μ": 158,
      "Σ": 159,
      "α": 160,
      "β": 161,
      "ε": 162,
      "λ": 163,
      "ο": 164,
      "ς": 165,
      "σ": 166,
      "ό": 167,
      "Ё": 168,
      "І": 169,
      "А": 170,
      "Б": 171,
      "В": 172,
      "Г": 173,
      "Д": 174,
      "Е": 175,
      "Ж": 176,
      "З": 177,
      "И": 178,
      "Й": 179,
      "К": 180,
      "Л": 181,
      "М": 182,
      "Н": 183,
      "О": 184,
      "П": 185,
      "Р": 186,
      "С": 187,
      "Т": 188,
      "У": 189,
      "Ф": 190,
      "Х": 191,
      "Ц": 192,
      "Ч": 193,
      "Ш": 194,
      "Щ": 195,
      "Ъ": 196,
      "Ы": 197,
      "Ь": 198,
      "Э": 199,
      "Ю": 200,
      "Я": 201,
      "а": 202,
      "б": 203,
      "в": 204,
      "г": 205,
      "д": 206,
      "е": 207,
      "ж": 208,
      "з": 209,
      "и": 210,
      "й": 211,
      "к": 212,
      "л": 213,
      "м": 214,
      "н": 215,
      "о": 216,
      "п": 217,
      "р": 218,
      "с": 219,
      "т": 220,
      "у": 221,
      "ф": 222,
      "х": 223,
      "ц": 224,
      "ч": 225,
      "ш": 226,
      "щ": 227,
      "ъ": 228,
      "ы": 229,
      "ь": 230,
      "э": 231,
      "ю": 232,
      "я": 233,
      "ё": 234,
      "є": 235,
      "і": 236,
      "ї": 237,
      "ң": 238,
      "ә": 239,
      "،": 240,
      "؛": 241,
      "؟": 242,
      "آ": 243,
      "أ": 244,
      "ئ": 245,
      "ا": 246,
      "ب": 247,
      "ت": 248,
      "ث": 249,
      "ج": 250,
      "ح": 251,
      "خ": 252,
      "د": 253,
      "ذ": 254,
      "ر": 255,
      "ز": 256,
      "س": 257,
      "ش": 258,
      "ص": 259,
      "ط": 260,
      "ظ": 261,
      "ع": 262,
      "ف": 263,
      "ق": 264,
      "ك": 265,
      "ل": 266,
      "م": 267,
      "ن": 268,
      "ه": 269,
      "و": 270,
      "ي": 271,
      "پ": 272,
      "چ": 273,
      "ک": 274,
      "گ": 275,
      "ی": 276,
      "۴": 277,
      "۵": 278,
      "۷": 279,
      "۹": 280,
      "ข": 281,
      "ง": 282,
      "ต": 283,
      "ท": 284,
      "ร": 285,
      "อ": 286,
      "ะ": 287,
      "า": 288,
      "เ": 289,
      "แ": 290,
      "้": 291,
      "ộ": 292,
      "​": 293,
      "‌": 294,
      "‍": 295,
      "‎": 296,
      "‏": 297,
      "‐": 298,
      "–": 299,
      "—": 300,
      "―": 301,
      "‘": 302,
      "’": 303,
      "‚": 304,
      "“": 305,
      "”": 306,
      "„": 307,
      "•": 308,
      "′": 309,
      "⁠": 310,
      "€": 311,
      "₽": 312,
      "↑": 313,
      "↓": 314,
      "−": 315,
      "─": 316,
      "☀": 317,
      "☝": 318,
      "☺": 319,
      "♀": 320,
      "♂": 321,
      "♥": 322,
      "⚜": 323,
      "⚡": 324,
      "✌": 325,
      "✨": 326,
      "✵": 327,
      "❗": 328,
      "❤": 329,
      "⠀": 330,
      "⭐": 331,
      "ぎ": 332,
      "す": 333,
      "と": 334,
      "も": 335,
      "俞": 336,
      "兒": 337,
      "刘": 338,
      "北": 339,
      "女": 340,
      "平": 341,
      "性": 342,
      "敏": 343,
      "歧": 344,
      "洪": 345,
      "災": 346,
      "视": 347,
      "許": 348,
      "路": 349,
      "雯": 350,
      "바": 351,
      "스": 352,
      "자": 353,
      "퍼": 354,
      "하": 355,
      "️": 356,
      "﻿": 357,
      "🇦": 358,
      "🇮": 359,
      "🇲": 360,
      "🇷": 361,
      "🇸": 362,
      "🇹": 363,
      "🇺": 364,
      "🇽": 365,
      "🌅": 366,
      "🌈": 367,
      "🌟": 368,
      "🍂": 369,
      "🍃": 370,
      "🎅": 371,
      "🎈": 372,
      "🎥": 373,
      "🎩": 374,
      "🎬": 375,
      "🎭": 376,
      "🏋": 377,
      "🏒": 378,
      "🏨": 379,
      "🏺": 380,
      "🏻": 381,
      "🏼": 382,
      "🏽": 383,
      "🏾": 384,
      "🏿": 385,
      "🐉": 386,
      "🐍": 387,
      "🐱": 388,
      "🐶": 389,
      "🐾": 390,
      "👀": 391,
      "👉": 392,
      "👌": 393,
      "👍": 394,
      "👏": 395,
      "👑": 396,
      "👗": 397,
      "👣": 398,
      "👨": 399,
      "👮": 400,
      "👹": 401,
      "👼": 402,
      "💃": 403,
      "💄": 404,
      "💅": 405,
      "💋": 406,
      "💎": 407,
      "💐": 408,
      "💔": 409,
      "💕": 410,
      "💖": 411,
      "💗": 412,
      "💙": 413,
      "💚": 414,
      "💛": 415,
      "💝": 416,
      "💣": 417,
      "💪": 418,
      "💰": 419,
      "💸": 420,
      "📲": 421,
      "📷": 422,
      "🔙": 423,
      "🔝": 424,
      "🔥": 425,
      "🔸": 426,
      "😂": 427,
      "😃": 428,
      "😄": 429,
      "😆": 430,
      "😉": 431,
      "😋": 432,
      "😌": 433,
      "😍": 434,
      "😎": 435,
      "😏": 436,
      "😒": 437,
      "😓": 438,
      "😘": 439,
      "😜": 440,
      "😝": 441,
      "😡": 442,
      "😢": 443,
      "😭": 444,
      "😯": 445,
      "😳": 446,
      "🙅": 447,
      "🙇": 448,
      "🙈": 449,
      "🙊": 450,
      "🙋": 451,
      "🙌": 452,
      "🙏": 453,
      "🚀": 454,
      "🚫": 455,
      "🛵": 456,
      "🤔": 457,
      "🤙": 458,
      "🤟": 459,
      "🤢": 460,
      "🤣": 461,
      "🤦": 462,
      "🤨": 463,
      "🤪": 464,
      "🤲": 465,
      "🤷": 466,
      "🤼": 467,
      "🥰": 468,
      "🦁": 469,
      "🦋": 470,
      "🧛": 471,
      "ст": 472,
      "ен": 473,
      "ов": 474,
      "ра": 475,
      "на": 476,
      "по": 477,
      "то": 478,
      "ко": 479,
      "но": 480,
      "ре": 481,
      "ли": 482,
      "ро": 483,
      "ни": 484,
      "го": 485,
      "ет": 486,
      "ри": 487,
      "ла": 488,
      "ка": 489,
      "за": 490,
      "ль": 491,
      "не": 492,
      "ны": 493,
      "ер": 494,
      "да": 495,
      "об": 496,
      "те": 497,
      "та": 498,
      "во": 499,
      "ле": 500,
      "ени": 501,
      "ки": 502,
      "ва": 503,
      "ло": 504,
      "ми": 505,
      "ся": 506,
      "ви": 507,
      "ти": 508,
      "де": 509,
      "ть": 510,
      "со": 511,
      "си": 512,
      "про": 513,
      "ру": 514,
      "ова": 515,
      "мо": 516,
      "до": 517,
      "ци": 518,
      "ди": 519,
      "ма": 520,
      "ста": 521,
      "от": 522,
      "ме": 523,
      "что": 524,
      "из": 525,
      "ско": 526,
      "че": 527,
      "па": 528,
      "ля": 529,
      "при": 530,
      "вы": 531,
      "се": 532,
      "пре": 533,
      "ве": 534,
      "ча": 535,
      "чи": 536,
      "сти": 537,
      "бо": 538,
      "са": 539,
      "ос": 540,
      "бы": 541,
      "ры": 542,
      "ду": 543,
      "ски": 544,
      "ку": 545,
      "пе": 546,
      "сь": 547,
      "ин": 548,
      "га": 549,
      "том": 550,
      "же": 551,
      "он": 552,
      "ово": 553,
      "сто": 554,
      "ент": 555,
      "ной": 556,
      "ения": 557,
      "пи": 558,
      "ных": 559,
      "тель": 560,
      "жи": 561,
      "ем": 562,
      "лу": 563,
      "щи": 564,
      "ну": 565,
      "ного": 566,
      "хо": 567,
      "ги": 568,
      "ров": 569,
      "»,": 570,
      "су": 571,
      "раз": 572,
      "ря": 573,
      "кото": 574,
      "ей": 575,
      "ств": 576,
      "ши": 577,
      "По": 578,
      "20": 579,
      "му": 580,
      "его": 581,
      "под": 582,
      "ение": 583,
      "ска": 584,
      "мен": 585,
      "пу": 586,
      "ты": 587,
      "сле": 588,
      "ции": 589,
      "ют": 590,
      "ные": 591,
      "стра": 592,
      "ту": 593,
      "ков": 594,
      "бе": 595,
      "сооб": 596,
      "ща": 597,
      "ор": 598,
      "зи": 599,
      "ак": 600,
      "она": 601,
      "ный": 602,
      "Рос": 603,
      "жа": 604,
      "пра": 605,
      "лет": 606,
      "рас": 607,
      "ком": 608,
      "ется": 609,
      "ня": 610,
      "гра": 611,
      "Росси": 612,
      "этом": 613,
      "сть": 614,
      "бу": 615,
      "вер": 616,
      "нов": 617,
      "».": 618,
      "рова": 619,
      "ше": 620,
      "кра": 621,
      "лю": 622,
      "ба": 623,
      "пред": 624,
      "ния": 625,
      "фи": 626,
      "сси": 627,
      "ской": 628,
      "ке": 629,
      "201": 630,
      "лов": 631,
      "кон": 632,
      "би": 633,
      "ского": 634,
      "лен": 635,
      "которы": 636,
      "пере": 637,
      "це": 638,
      "спо": 639,
      "это": 640,
      "года": 641,
      "гу": 642,
      "ным": 643,
      "мы": 644,
      "ден": 645,
      "ар": 646,
      "ства": 647,
      "Об": 648,
      "яб": 649,
      "лся": 650,
      "так": 651,
      "лей": 652,
      "гла": 653,
      "ние": 654,
      "од": 655,
      "кт": 656,
      "ще": 657,
      "дет": 658,
      "мет": 659,
      "сту": 660,
      "ном": 661,
      "нии": 662,
      "сообща": 663,
      "пер": 664,
      "ство": 665,
      "для": 666,
      "дер": 667,
      "яви": 668,
      "дол": 669,
      "России": 670,
      "ствен": 671,
      "зна": 672,
      "сво": 673,
      "сов": 674,
      "жен": 675,
      "воз": 676,
      "тер": 677,
      "ности": 678,
      "ды": 679,
      "ении": 680,
      "ав": 681,
      "бли": 682,
      "росси": 683,
      "ября": 684,
      "На": 685,
      "ский": 686,
      "каза": 687,
      "лова": 688,
      "ное": 689,
      "мя": 690,
      "все": 691,
      "аль": 692,
      "ских": 693,
      "слу": 694,
      "сказа": 695,
      "чен": 696,
      "после": 697,
      "зы": 698,
      "как": 699,
      "пла": 700,
      "лось": 701,
      "вре": 702,
      "гово": 703,
      "лли": 704,
      "тся": 705,
      "ться": 706,
      "ан": 707,
      "ву": 708,
      "лись": 709,
      "мер": 710,
      "тив": 711,
      "ран": 712,
      "ник": 713,
      "ца": 714,
      "дан": 715,
      "тре": 716,
      "мож": 717,
      "тов": 718,
      "также": 719,
      "ная": 720,
      "фор": 721,
      "ис": 722,
      "россий": 723,
      "ек": 724,
      "вля": 725,
      "стави": 726,
      "нее": 727,
      "ходи": 728,
      "соб": 729,
      "ющи": 730,
      "их": 731,
      "заяви": 732,
      "ша": 733,
      "три": 734,
      "ность": 735,
      "стви": 736,
      "ром": 737,
      "лась": 738,
      "слова": 739,
      "полу": 740,
      "тор": 741,
      "ев": 742,
      "вет": 743,
      "ную": 744,
      "чет": 745,
      "милли": 746,
      "кой": 747,
      "сы": 748,
      "ция": 749,
      "кан": 750,
      "стро": 751,
      "цен": 752,
      "ха": 753,
      "сообщает": 754,
      "публи": 755,
      "стоя": 756,
      "ника": 757,
      "дей": 758,
      "сте": 759,
      "ее": 760,
      "боль": 761,
      "зу": 762,
      "дов": 763,
      "цент": 764,
      "ред": 765,
      "спе": 766,
      "году": 767,
      "ления": 768,
      "вши": 769,
      "тыся": 770,
      "дова": 771,
      "стре": 772,
      "поли": 773,
      "дент": 774,
      "лько": 775,
      "пы": 776,
      "Ра": 777,
      "er": 778,
      "дру": 779,
      "Ко": 780,
      "время": 781,
      "нима": 782,
      "Мос": 783,
      "нача": 784,
      "или": 785,
      "Укра": 786,
      "вя": 787,
      "гда": 788,
      "ские": 789,
      "рии": 790,
      "ил": 791,
      "СШ": 792,
      "США": 793,
      "ых": 794,
      "ению": 795,
      "ур": 796,
      "был": 797,
      "боле": 798,
      "ут": 799,
      "пол": 800,
      "ний": 801,
      "ге": 802,
      "цию": 803,
      "ней": 804,
      "лек": 805,
      "компа": 806,
      "объ": 807,
      "словам": 808,
      "сказал": 809,
      "которые": 810,
      "руб": 811,
      "прези": 812,
      "дар": 813,
      "произ": 814,
      "дин": 815,
      "дела": 816,
      "род": 817,
      "сни": 818,
      "руп": 819,
      "ию": 820,
      "зо": 821,
      "прави": 822,
      "тра": 823,
      "ском": 824,
      "зова": 825,
      "Ма": 826,
      "мини": 827,
      "ству": 828,
      "уча": 829,
      "зва": 830,
      "рен": 831,
      "дом": 832,
      "ква": 833,
      "рт": 834,
      "тру": 835,
      "того": 836,
      "рово": 837,
      "пров": 838,
      "мери": 839,
      "заявил": 840,
      "раб": 841,
      "кры": 842,
      "прав": 843,
      "чем": 844,
      "За": 845,
      "сан": 846,
      "тели": 847,
      "пов": 848,
      "клю": 849,
      "телей": 850,
      "теля": 851,
      "кова": 852,
      "зыва": 853,
      "Украи": 854,
      "орга": 855,
      "ники": 856,
      ").": 857,
      "ласти": 858,
      "шен": 859,
      "рабо": 860,
      "челов": 861,
      "Ка": 862,
      "было": 863,
      "рублей": 864,
      "лы": 865,
      "ят": 866,
      "Он": 867,
      "сообщи": 868,
      "доб": 869,
      "само": 870,
      "они": 871,
      "отмет": 872,
      "сс": 873,
      "им": 874,
      "став": 875,
      "обо": 876,
      "ская": 877,
      "Со": 878,
      "ональ": 879,
      "ави": 880,
      "держа": 881,
      "ений": 882,
      "смо": 883,
      "ниц": 884,
      "зда": 885,
      "мерикан": 886,
      "ными": 887,
      "рам": 888,
      "ников": 889,
      "пас": 890,
      "которо": 891,
      "будет": 892,
      "окт": 893,
      "сла": 894,
      "ются": 895,
      "более": 896,
      "теле": 897,
      "2018": 898,
      "вой": 899,
      "который": 900,
      "ью": 901,
      "жду": 902,
      "эк": 903,
      "форма": 904,
      "ступ": 905,
      "сли": 906,
      "мент": 907,
      "коло": 908,
      "нако": 909,
      "кре": 910,
      "Во": 911,
      "нали": 912,
      "станов": 913,
      "рта": 914,
      "ян": 915,
      "ответ": 916,
      "10": 917,
      "реги": 918,
      "ета": 919,
      "тысяч": 920,
      "19": 921,
      "были": 922,
      "счи": 923,
      "ман": 924,
      "циаль": 925,
      "писа": 926,
      "следова": 927,
      "рь": 928,
      "говори": 929,
      "труд": 930,
      "процент": 931,
      "испо": 932,
      "льзова": 933,
      "сент": 934,
      "свя": 935,
      "фе": 936,
      "нару": 937,
      "рти": 938,
      "Ки": 939,
      "ление": 940,
      "ход": 941,
      "жда": 942,
      "меча": 943,
      "стве": 944,
      "вест": 945,
      "нет": 946,
      "сет": 947,
      "чтобы": 948,
      "фо": 949,
      "авгу": 950,
      "него": 951,
      "дения": 952,
      "жчи": 953,
      "али": 954,
      "вш": 955,
      "in": 956,
      "обра": 957,
      "ему": 958,
      "воен": 959,
      "точ": 960,
      "шение": 961,
      "американ": 962,
      "работ": 963,
      "тиче": 964,
      "может": 965,
      "рук": 966,
      "них": 967,
      "получи": 968,
      "горо": 969,
      "шения": 970,
      "При": 971,
      "лож": 972,
      "сотруд": 973,
      "мь": 974,
      "госу": 975,
      "an": 976,
      "год": 977,
      "явля": 978,
      "этого": 979,
      "информа": 980,
      "государ": 981,
      "отно": 982,
      "процентов": 983,
      "октября": 984,
      "извест": 985,
      "ые": 986,
      "тем": 987,
      "стран": 988,
      "чер": 989,
      "яв": 990,
      "уже": 991,
      "цион": 992,
      "помо": 993,
      "Ранее": 994,
      "аг": 995,
      "кла": 996,
      "переда": 997,
      "уда": 998,
      "on": 999,
      "Са": 1000,
      "тан": 1001,
      "виде": 1002,
      "рей": 1003,
      "щен": 1004,
      "вать": 1005,
      "ением": 1006,
      "публикова": 1007,
      "изда": 1008,
      "коно": 1009,
      "органи": 1010,
      "хи": 1011,
      "представи": 1012,
      "обе": 1013,
      "исто": 1014,
      "оне": 1015,
      "над": 1016,
      "бор": 1017,
      "онов": 1018,
      "рез": 1019,
      "призна": 1020,
      "счита": 1021,
      "овой": 1022,
      "вз": 1023,
      "Ин": 1024,
      "),": 1025,
      "бри": 1026,
      "между": 1027,
      "сторо": 1028,
      "мента": 1029,
      "долж": 1030,
      "Та": 1031,
      "Ан": 1032,
      "льта": 1033,
      "Моск": 1034,
      "сред": 1035,
      "it": 1036,
      "тин": 1037,
      "ск": 1038,
      "опубликова": 1039,
      "Пу": 1040,
      "обви": 1041,
      "неско": 1042,
      "рак": 1043,
      "води": 1044,
      "шел": 1045,
      "прове": 1046,
      "действи": 1047,
      "дут": 1048,
      "лич": 1049,
      "ках": 1050,
      "сентября": 1051,
      "чу": 1052,
      "долла": 1053,
      "прово": 1054,
      "тех": 1055,
      "дель": 1056,
      "кто": 1057,
      "мужчи": 1058,
      "работа": 1059,
      "ору": 1060,
      "or": 1061,
      "укра": 1062,
      "ложи": 1063,
      "Ми": 1064,
      "ским": 1065,
      "когда": 1066,
      "ях": 1067,
      "ясни": 1068,
      "зульта": 1069,
      "сер": 1070,
      "компании": 1071,
      "00": 1072,
      "раль": 1073,
      "рес": 1074,
      "част": 1075,
      "страны": 1076,
      "Вла": 1077,
      "тельно": 1078,
      "Ме": 1079,
      "Украины": 1080,
      "Это": 1081,
      "нова": 1082,
      "дра": 1083,
      "служ": 1084,
      "груп": 1085,
      "тро": 1086,
      "человек": 1087,
      "яти": 1088,
      "дента": 1089,
      "шо": 1090,
      "ниче": 1091,
      "произо": 1092,
      "зе": 1093,
      "Бо": 1094,
      "результа": 1095,
      "гро": 1096,
      "августа": 1097,
      "ноября": 1098,
      "дву": 1099,
      "ску": 1100,
      "es": 1101,
      "была": 1102,
      "отметил": 1103,
      "сты": 1104,
      "оста": 1105,
      "пло": 1106,
      "ких": 1107,
      "бра": 1108,
      "2017": 1109,
      "назва": 1110,
      "вра": 1111,
      "Влади": 1112,
      "право": 1113,
      "еще": 1114,
      "he": 1115,
      "кри": 1116,
      "рито": 1117,
      "Алек": 1118,
      "только": 1119,
      "стов": 1120,
      "ез": 1121,
      "кор": 1122,
      "ar": 1123,
      "други": 1124,
      "ющ": 1125,
      "бан": 1126,
      "готов": 1127,
      "Ев": 1128,
      "ад": 1129,
      "сков": 1130,
      "гов": 1131,
      "приня": 1132,
      "Как": 1133,
      "мест": 1134,
      "Си": 1135,
      "образ": 1136,
      "области": 1137,
      "спи": 1138,
      "Так": 1139,
      "чь": 1140,
      "ом": 1141,
      "возмож": 1142,
      "ствова": 1143,
      "лага": 1144,
      "июля": 1145,
      "15": 1146,
      "террито": 1147,
      "пера": 1148,
      "дви": 1149,
      "против": 1150,
      "президент": 1151,
      "рассказал": 1152,
      "кана": 1153,
      "грам": 1154,
      "где": 1155,
      "ую": 1156,
      "ок": 1157,
      "мени": 1158,
      "логи": 1159,
      "мира": 1160,
      "день": 1161,
      "тельства": 1162,
      "нес": 1163,
      "голов": 1164,
      "нем": 1165,
      "встре": 1166,
      "украин": 1167,
      "тери": 1168,
      "защи": 1169,
      "en": 1170,
      "чения": 1171,
      "два": 1172,
      "al": 1173,
      "шли": 1174,
      "чемпи": 1175,
      "вод": 1176,
      "треб": 1177,
      "цы": 1178,
      "ун": 1179,
      "Не": 1180,
      "долларов": 1181,
      "ций": 1182,
      "поз": 1183,
      "народ": 1184,
      "организа": 1185,
      "ter": 1186,
      "жур": 1187,
      "ус": 1188,
      "суд": 1189,
      "ген": 1190,
      "несколько": 1191,
      "минист": 1192,
      "Ве": 1193,
      "лом": 1194,
      "мир": 1195,
      "Пос": 1196,
      "рий": 1197,
      "стои": 1198,
      "послед": 1199,
      "цев": 1200,
      "около": 1201,
      "эти": 1202,
      "дели": 1203,
      "Ре": 1204,
      "шин": 1205,
      "первы": 1206,
      "ступи": 1207,
      "уби": 1208,
      "отмеча": 1209,
      "ному": 1210,
      "вед": 1211,
      "пен": 1212,
      "пар": 1213,
      "ставля": 1214,
      "фина": 1215,
      "данным": 1216,
      "созда": 1217,
      "оказа": 1218,
      "миллиар": 1219,
      "сай": 1220,
      "однако": 1221,
      "Ро": 1222,
      "гут": 1223,
      "рован": 1224,
      "цента": 1225,
      "вает": 1226,
      "рай": 1227,
      "процента": 1228,
      "вший": 1229,
      "сообщил": 1230,
      "добави": 1231,
      "30": 1232,
      "нию": 1233,
      "пыта": 1234,
      "кого": 1235,
      "12": 1236,
      "задержа": 1237,
      "кол": 1238,
      "один": 1239,
      "ябре": 1240,
      "вто": 1241,
      "фак": 1242,
      "согла": 1243,
      "СС": 1244,
      "авто": 1245,
      "am": 1246,
      "il": 1247,
      "реди": 1248,
      "шении": 1249,
      "ект": 1250,
      "жден": 1251,
      "случа": 1252,
      "ый": 1253,
      "После": 1254,
      "ющий": 1255,
      "чение": 1256,
      "бер": 1257,
      "стан": 1258,
      "находи": 1259,
      "вопро": 1260,
      "рая": 1261,
      "Бе": 1262,
      "ох": 1263,
      "Па": 1264,
      "Пет": 1265,
      "ним": 1266,
      "там": 1267,
      "каб": 1268,
      "коми": 1269,
      "состоя": 1270,
      "показа": 1271,
      "пресс": 1272,
      "коман": 1273,
      "Ва": 1274,
      "меся": 1275,
      "кну": 1276,
      "подо": 1277,
      "заклю": 1278,
      "оби": 1279,
      "цер": 1280,
      "президента": 1281,
      "ющих": 1282,
      "фут": 1283,
      "st": 1284,
      "пор": 1285,
      "Ни": 1286,
      "Ви": 1287,
      "месте": 1288,
      "тен": 1289,
      "без": 1290,
      "двух": 1291,
      "Трам": 1292,
      "нер": 1293,
      "ское": 1294,
      "дел": 1295,
      "офи": 1296,
      "кие": 1297,
      "лан": 1298,
      "тя": 1299,
      "разви": 1300,
      "побе": 1301,
      "дж": 1302,
      "200": 1303,
      "мн": 1304,
      "будут": 1305,
      "вели": 1306,
      "От": 1307,
      "ал": 1308,
      "стало": 1309,
      "грани": 1310,
      "фото": 1311,
      "Сер": 1312,
      "ново": 1313,
      "жд": 1314,
      "видео": 1315,
      "необ": 1316,
      "ровать": 1317,
      "стать": 1318,
      "Се": 1319,
      "миче": 1320,
      "рав": 1321,
      "трен": 1322,
      "ья": 1323,
      "сдела": 1324,
      "плани": 1325,
      "место": 1326,
      "миллионов": 1327,
      "Од": 1328,
      "ссы": 1329,
      "шта": 1330,
      "туа": 1331,
      "совер": 1332,
      "графи": 1333,
      "До": 1334,
      "мой": 1335,
      "Россия": 1336,
      "лови": 1337,
      "экс": 1338,
      "которых": 1339,
      "нитель": 1340,
      "жиз": 1341,
      "семь": 1342,
      "газ": 1343,
      "жения": 1344,
      "циональ": 1345,
      "тай": 1346,
      "име": 1347,
      "которая": 1348,
      "доро": 1349,
      "сообщалось": 1350,
      "самолет": 1351,
      "Ар": 1352,
      "бя": 1353,
      "el": 1354,
      "Пре": 1355,
      "Все": 1356,
      "кварти": 1357,
      "ou": 1358,
      "министра": 1359,
      "спорт": 1360,
      "меня": 1361,
      "Ново": 1362,
      "сети": 1363,
      "прода": 1364,
      "льно": 1365,
      "вшего": 1366,
      "агент": 1367,
      "скую": 1368,
      "эконо": 1369,
      "11": 1370,
      "The": 1371,
      "стал": 1372,
      "oo": 1373,
      "ницу": 1374,
      "обнару": 1375,
      "гли": 1376,
      "at": 1377,
      "написа": 1378,
      "нен": 1379,
      "ряд": 1380,
      "Алексан": 1381,
      "пока": 1382,
      "метров": 1383,
      "участи": 1384,
      "роме": 1385,
      "является": 1386,
      "тон": 1387,
      "женщи": 1388,
      "тысячи": 1389,
      "лия": 1390,
      "сей": 1391,
      "мар": 1392,
      "опера": 1393,
      "фа": 1394,
      "верси": 1395,
      "ками": 1396,
      "журнали": 1397,
      "щее": 1398,
      "зопас": 1399,
      "интер": 1400,
      "сообщ": 1401,
      "запре": 1402,
      "мость": 1403,
      "мат": 1404,
      "четы": 1405,
      "быть": 1406,
      "строи": 1407,
      "участ": 1408,
      "если": 1409,
      "ce": 1410,
      "Евро": 1411,
      "рой": 1412,
      "руково": 1413,
      "говорится": 1414,
      "час": 1415,
      "кам": 1416,
      "ям": 1417,
      "бле": 1418,
      "передает": 1419,
      "шет": 1420,
      "подчер": 1421,
      "Кон": 1422,
      "декаб": 1423,
      "высо": 1424,
      "безопас": 1425,
      "ступа": 1426,
      "Ха": 1427,
      "ким": 1428,
      "прияти": 1429,
      "страда": 1430,
      "Ли": 1431,
      "есть": 1432,
      "гру": 1433,
      "То": 1434,
      "сил": 1435,
      "вести": 1436,
      "сайте": 1437,
      "дома": 1438,
      "бой": 1439,
      "един": 1440,
      "пусти": 1441,
      "граж": 1442,
      "тур": 1443,
      "16": 1444,
      "пя": 1445,
      "москов": 1446,
      "25": 1447,
      "тия": 1448,
      "програм": 1449,
      "енты": 1450,
      "Мы": 1451,
      "18": 1452,
      "вла": 1453,
      "Су": 1454,
      "челове": 1455,
      "Также": 1456,
      "доку": 1457,
      "рассказа": 1458,
      "комп": 1459,
      "авиа": 1460,
      "вал": 1461,
      "..": 1462,
      "две": 1463,
      "города": 1464,
      "необходи": 1465,
      "ших": 1466,
      "источ": 1467,
      "In": 1468,
      "уч": 1469,
      "тельство": 1470,
      "Пе": 1471,
      "самы": 1472,
      "миллиона": 1473,
      "футбо": 1474,
      "могут": 1475,
      "проек": 1476,
      "дире": 1477,
      "ровали": 1478,
      "своей": 1479,
      "Его": 1480,
      "использова": 1481,
      "себя": 1482,
      "тран": 1483,
      "сам": 1484,
      "четыре": 1485,
      "ходе": 1486,
      "цу": 1487,
      "Россий": 1488,
      "напа": 1489,
      "результате": 1490,
      "вших": 1491,
      "обще": 1492,
      "бен": 1493,
      "сня": 1494,
      "российских": 1495,
      "чень": 1496,
      "Из": 1497,
      "граждан": 1498,
      "издание": 1499,
      "глав": 1500,
      "позво": 1501,
      "ху": 1502,
      "пользова": 1503,
      "известно": 1504,
      "нения": 1505,
      "ющие": 1506,
      "стей": 1507,
      "МИ": 1508,
      "санк": 1509,
      "продол": 1510,
      "Она": 1511,
      "Че": 1512,
      "управ": 1513,
      "установ": 1514,
      "зов": 1515,
      "Де": 1516,
      "Мак": 1517,
      "исследова": 1518,
      "круп": 1519,
      "ган": 1520,
      "ведом": 1521,
      "бур": 1522,
      "ровал": 1523,
      "больше": 1524,
      "сист": 1525,
      "неф": 1526,
      "клу": 1527,
      "реши": 1528,
      "сно": 1529,
      "кур": 1530,
      "жды": 1531,
      "лены": 1532,
      "требова": 1533,
      "ситуа": 1534,
      "седа": 1535,
      "Ку": 1536,
      "ИА": 1537,
      "ым": 1538,
      "помощ": 1539,
      "глава": 1540,
      "вуш": 1541,
      "заяв": 1542,
      "преступ": 1543,
      "закон": 1544,
      "пара": 1545,
      "Кроме": 1546,
      "власти": 1547,
      "матери": 1548,
      "рия": 1549,
      "через": 1550,
      "ракет": 1551,
      "полага": 1552,
      "рон": 1553,
      "вали": 1554,
      "чемпиона": 1555,
      "тить": 1556,
      "поч": 1557,
      "ностью": 1558,
      "14": 1559,
      "бла": 1560,
      "свою": 1561,
      "много": 1562,
      "сбор": 1563,
      "бое": 1564,
      "рует": 1565,
      "каче": 1566,
      "мости": 1567,
      "пози": 1568,
      "след": 1569,
      "ходя": 1570,
      "имен": 1571,
      "настоя": 1572,
      "территории": 1573,
      "нил": 1574,
      "уточ": 1575,
      "уголов": 1576,
      "дера": 1577,
      "откры": 1578,
      "пода": 1579,
      "решение": 1580,
      "рин": 1581,
      "числе": 1582,
      "шла": 1583,
      "17": 1584,
      "Про": 1585,
      "четвер": 1586,
      "подчеркну": 1587,
      "Мо": 1588,
      "попа": 1589,
      "испол": 1590,
      "летний": 1591,
      "способ": 1592,
      "Ба": 1593,
      "нием": 1594,
      "вают": 1595,
      "шь": 1596,
      "причи": 1597,
      "добавил": 1598,
      "пенси": 1599,
      "ждения": 1600,
      "бло": 1601,
      "которой": 1602,
      "ссыл": 1603,
      "смер": 1604,
      "всего": 1605,
      "кси": 1606,
      "поддер": 1607,
      "шей": 1608,
      "лик": 1609,
      "Ленты": 1610,
      "50": 1611,
      "пись": 1612,
      "информации": 1613,
      "официаль": 1614,
      "gr": 1615,
      "чно": 1616,
      "мон": 1617,
      "обла": 1618,
      "подоз": 1619,
      "сро": 1620,
      "отказа": 1621,
      "моло": 1622,
      "появи": 1623,
      "жение": 1624,
      "Однако": 1625,
      "ито": 1626,
      "13": 1627,
      "фер": 1628,
      "вне": 1629,
      "уров": 1630,
      "оче": 1631,
      "момент": 1632,
      "евро": 1633,
      "луч": 1634,
      "утвер": 1635,
      "22": 1636,
      "осу": 1637,
      "шло": 1638,
      "ница": 1639,
      "цией": 1640,
      "этому": 1641,
      "очень": 1642,
      "това": 1643,
      "циали": 1644,
      "обрати": 1645,
      "следу": 1646,
      "вос": 1647,
      "нам": 1648,
      "струк": 1649,
      "еди": 1650,
      "2016": 1651,
      "пробле": 1652,
      "сен": 1653,
      "кли": 1654,
      "смен": 1655,
      "ье": 1656,
      "Те": 1657,
      "аре": 1658,
      "ктор": 1659,
      "голо": 1660,
      "няя": 1661,
      "строй": 1662,
      "ствия": 1663,
      "стер": 1664,
      "которого": 1665,
      "занима": 1666,
      "24": 1667,
      "ске": 1668,
      "дело": 1669,
      "частности": 1670,
      "эта": 1671,
      "эле": 1672,
      "поги": 1673,
      "принима": 1674,
      "йти": 1675,
      "сут": 1676,
      "РИА": 1677,
      "Гла": 1678,
      "кило": 1679,
      "убий": 1680,
      "Новости": 1681,
      "сом": 1682,
      "сло": 1683,
      "сообщается": 1684,
      "министр": 1685,
      "ссылкой": 1686,
      "уни": 1687,
      "кар": 1688,
      "казыва": 1689,
      "инте": 1690,
      "ницы": 1691,
      "безопасности": 1692,
      "пишет": 1693,
      "всех": 1694,
      "вид": 1695,
      "чего": 1696,
      "Анд": 1697,
      "Они": 1698,
      "ток": 1699,
      "одно": 1700,
      "разме": 1701,
      "Га": 1702,
      "ляр": 1703,
      "лин": 1704,
      "людей": 1705,
      "экспер": 1706,
      "цей": 1707,
      "Му": 1708,
      "часть": 1709,
      "зан": 1710,
      "предо": 1711,
      "тных": 1712,
      "игра": 1713,
      "лении": 1714,
      "проект": 1715,
      "фон": 1716,
      "бю": 1717,
      "поль": 1718,
      "Москве": 1719,
      "финан": 1720,
      "др": 1721,
      "тора": 1722,
      "пута": 1723,
      "автом": 1724,
      "Дж": 1725,
      "гре": 1726,
      "стиче": 1727,
      "мнению": 1728,
      "тет": 1729,
      "тета": 1730,
      "эро": 1731,
      "можно": 1732,
      "порта": 1733,
      "соответ": 1734,
      "биз": 1735,
      "поку": 1736,
      "Владимир": 1737,
      "государства": 1738,
      "сса": 1739,
      "проду": 1740,
      "wit": 1741,
      "вое": 1742,
      "le": 1743,
      "Пер": 1744,
      "роны": 1745,
      "шего": 1746,
      "мор": 1747,
      "повы": 1748,
      "той": 1749,
      "перед": 1750,
      "вается": 1751,
      "тно": 1752,
      "ТА": 1753,
      "Фе": 1754,
      "Кры": 1755,
      "Мин": 1756,
      "слав": 1757,
      "лай": 1758,
      "декабря": 1759,
      "возра": 1760,
      "ail": 1761,
      "ing": 1762,
      "республи": 1763,
      "фотографи": 1764,
      "сум": 1765,
      "международ": 1766,
      "Дми": 1767,
      "мина": 1768,
      "тому": 1769,
      "ew": 1770,
      "ера": 1771,
      "ради": 1772,
      "ственного": 1773,
      "спа": 1774,
      "рын": 1775,
      "состави": 1776,
      "начала": 1777,
      "дь": 1778,
      "рию": 1779,
      "выбо": 1780,
      "Да": 1781,
      "бро": 1782,
      "пример": 1783,
      "твер": 1784,
      "щих": 1785,
      "gram": 1786,
      "комплек": 1787,
      "обя": 1788,
      "треть": 1789,
      "щий": 1790,
      "котором": 1791,
      "провер": 1792,
      "девуш": 1793,
      "еха": 1794,
      "нами": 1795,
      "Twit": 1796,
      "российского": 1797,
      "жили": 1798,
      "туры": 1799,
      "даль": 1800,
      "ссии": 1801,
      "проис": 1802,
      "Twitter": 1803,
      "региона": 1804,
      "Дмитри": 1805,
      "счет": 1806,
      "рах": 1807,
      "шая": 1808,
      "вле": 1809,
      "пострада": 1810,
      "ила": 1811,
      "ранее": 1812,
      "лидер": 1813,
      "Вели": 1814,
      "друго": 1815,
      "сма": 1816,
      "дея": 1817,
      "главы": 1818,
      "щения": 1819,
      "роди": 1820,
      "жал": 1821,
      "нь": 1822,
      "скому": 1823,
      "основ": 1824,
      "ственной": 1825,
      "других": 1826,
      "внима": 1827,
      "британ": 1828,
      "ино": 1829,
      "скими": 1830,
      "организации": 1831,
      "охра": 1832,
      "автомоби": 1833,
      "шед": 1834,
      "ТАСС": 1835,
      "стри": 1836,
      "ссе": 1837,
      "Но": 1838,
      "зем": 1839,
      "трех": 1840,
      "ремен": 1841,
      "дии": 1842,
      "Москов": 1843,
      "РФ": 1844,
      "Путин": 1845,
      "сова": 1846,
      "жно": 1847,
      "2019": 1848,
      "отношении": 1849,
      "называ": 1850,
      "угро": 1851,
      "шко": 1852,
      "конце": 1853,
      "вну": 1854,
      "шенко": 1855,
      "мов": 1856,
      "ули": 1857,
      "человека": 1858,
      "стали": 1859,
      "щая": 1860,
      "зя": 1861,
      "распо": 1862,
      "ic": 1863,
      "свои": 1864,
      "ством": 1865,
      "оружи": 1866,
      "дой": 1867,
      "городе": 1868,
      "лон": 1869,
      "ой": 1870,
      "нице": 1871,
      "чной": 1872,
      "ходит": 1873,
      "мьер": 1874,
      "ат": 1875,
      "дить": 1876,
      "стя": 1877,
      "полити": 1878,
      "компания": 1879,
      "Бу": 1880,
      "верну": 1881,
      "деся": 1882,
      "кое": 1883,
      "этот": 1884,
      "кру": 1885,
      "кс": 1886,
      "блю": 1887,
      "хов": 1888,
      "город": 1889,
      "мужчина": 1890,
      "своем": 1891,
      "Москва": 1892,
      "услови": 1893,
      "должны": 1894,
      "филь": 1895,
      "националь": 1896,
      "стороны": 1897,
      "рамках": 1898,
      "одного": 1899,
      "жу": 1900,
      "совет": 1901,
      "меди": 1902,
      "нах": 1903,
      "Под": 1904,
      "ir": 1905,
      "рева": 1906,
      "лена": 1907,
      "полиции": 1908,
      "подчеркнул": 1909,
      "кро": 1910,
      "кин": 1911,
      "Пути": 1912,
      "тера": 1913,
      "Пред": 1914,
      "составля": 1915,
      "написал": 1916,
      "режи": 1917,
      "воору": 1918,
      "гей": 1919,
      "пора": 1920,
      "проце": 1921,
      "Лу": 1922,
      "веро": 1923,
      "лег": 1924,
      "пове": 1925,
      "дли": 1926,
      "щей": 1927,
      "контро": 1928,
      "Отмеча": 1929,
      "мести": 1930,
      "хода": 1931,
      "связи": 1932,
      "лед": 1933,
      "21": 1934,
      "вез": 1935,
      "ева": 1936,
      "дости": 1937,
      "рил": 1938,
      "щего": 1939,
      "защит": 1940,
      "лья": 1941,
      "систем": 1942,
      "миллиарда": 1943,
      "ноги": 1944,
      "основа": 1945,
      "Москвы": 1946,
      "жизни": 1947,
      "Фран": 1948,
      "части": 1949,
      "заня": 1950,
      "кий": 1951,
      "Мар": 1952,
      "анали": 1953,
      "сре": 1954,
      "подтвер": 1955,
      "указа": 1956,
      "мину": 1957,
      "ового": 1958,
      "этой": 1959,
      "Александр": 1960,
      "мень": 1961,
      "даже": 1962,
      "секре": 1963,
      "актив": 1964,
      "брита": 1965,
      "значи": 1966,
      "лета": 1967,
      "мыш": 1968,
      "социаль": 1969,
      "детей": 1970,
      "смот": 1971,
      "вая": 1972,
      "Прези": 1973,
      "элект": 1974,
      "водит": 1975,
      "ace": 1976,
      "действия": 1977,
      "яснил": 1978,
      "случае": 1979,
      "участие": 1980,
      "хва": 1981,
      "специали": 1982,
      "службы": 1983,
      "футболи": 1984,
      "зации": 1985,
      "циа": 1986,
      "ить": 1987,
      "получил": 1988,
      "рост": 1989,
      "New": 1990,
      "администра": 1991,
      "гер": 1992,
      "мом": 1993,
      "Трамп": 1994,
      "Ком": 1995,
      "св": 1996,
      "ены": 1997,
      "обеспе": 1998,
      "опре": 1999,
      "производ": 2000,
      "первые": 2001,
      "личе": 2002,
      "стране": 2003,
      "Вы": 2004,
      "et": 2005,
      "рем": 2006,
      "маль": 2007,
      "пря": 2008,
      "ФС": 2009,
      "завер": 2010,
      "удалось": 2011,
      "дил": 2012,
      "суще": 2013,
      "сколь": 2014,
      "пять": 2015,
      "сили": 2016,
      "перво": 2017,
      "23": 2018,
      "ель": 2019,
      "нец": 2020,
      "регу": 2021,
      "тали": 2022,
      "выступа": 2023,
      "Президент": 2024,
      "шу": 2025,
      "обы": 2026,
      "инци": 2027,
      "щение": 2028,
      "нас": 2029,
      "менти": 2030,
      "законо": 2031,
      "сообщили": 2032,
      "Велико": 2033,
      "зако": 2034,
      "предложи": 2035,
      "реали": 2036,
      "преду": 2037,
      "россиян": 2038,
      "Великобрита": 2039,
      "нало": 2040,
      "тами": 2041,
      "дераль": 2042,
      "стала": 2043,
      "иль": 2044,
      "видет": 2045,
      "рую": 2046,
      "Сан": 2047,
      "нили": 2048,
      "направ": 2049,
      "чить": 2050,
      "работы": 2051,
      "26": 2052,
      "жива": 2053,
      "2014": 2054,
      "должен": 2055,
      "199": 2056,
      "рассказала": 2057,
      "рави": 2058,
      "почти": 2059,
      "вклю": 2060,
      "щин": 2061,
      "зад": 2062,
      "чей": 2063,
      "кораб": 2064,
      "считает": 2065,
      "зер": 2066,
      "Украин": 2067,
      "телекана": 2068,
      "пыт": 2069,
      "представитель": 2070,
      "полицей": 2071,
      "очеред": 2072,
      "вызва": 2073,
      "роб": 2074,
      "произошел": 2075,
      "ерт": 2076,
      "изби": 2077,
      "иностран": 2078,
      "Го": 2079,
      "рус": 2080,
      "конф": 2081,
      "утвержда": 2082,
      "кти": 2083,
      "живо": 2084,
      "роприяти": 2085,
      "потер": 2086,
      "Ру": 2087,
      "топ": 2088,
      "подоб": 2089,
      "креди": 2090,
      "ющего": 2091,
      "попу": 2092,
      "зави": 2093,
      "издания": 2094,
      "каз": 2095,
      "ствует": 2096,
      "цени": 2097,
      "сажи": 2098,
      "дав": 2099,
      "Украине": 2100,
      "вшие": 2101,
      "пери": 2102,
      "вари": 2103,
      "27": 2104,
      "ограни": 2105,
      "разу": 2106,
      "получа": 2107,
      "ребен": 2108,
      "приводит": 2109,
      "гам": 2110,
      "деле": 2111,
      "которое": 2112,
      "льных": 2113,
      "льного": 2114,
      "Интер": 2115,
      "тот": 2116,
      "замет": 2117,
      "пассажи": 2118,
      "ербур": 2119,
      "объяви": 2120,
      "мая": 2121,
      "начале": 2122,
      "тиво": 2123,
      "увели": 2124,
      "сейчас": 2125,
      "бюдж": 2126,
      "Дональ": 2127,
      "рели": 2128,
      "депута": 2129,
      "премьер": 2130,
      "площа": 2131,
      "ed": 2132,
      "рори": 2133,
      "нин": 2134,
      "внимание": 2135,
      "ший": 2136,
      "дили": 2137,
      "расно": 2138,
      "документ": 2139,
      "Отмечается": 2140,
      "om": 2141,
      "проку": 2142,
      "дума": 2143,
      "расследова": 2144,
      "заявила": 2145,
      "мышлен": 2146,
      "is": 2147,
      "Цент": 2148,
      "ложен": 2149,
      "шие": 2150,
      "спон": 2151,
      "экономи": 2152,
      "иг": 2153,
      "ником": 2154,
      "затем": 2155,
      "материа": 2156,
      "ub": 2157,
      "управления": 2158,
      "тури": 2159,
      "пуска": 2160,
      "телем": 2161,
      "спор": 2162,
      "Сергей": 2163,
      "сообщении": 2164,
      "as": 2165,
      "28": 2166,
      "нар": 2167,
      "шее": 2168,
      "веду": 2169,
      "аэро": 2170,
      "поддерж": 2171,
      "ВД": 2172,
      "льной": 2173,
      "сою": 2174,
      "террори": 2175,
      "пожа": 2176,
      "Гер": 2177,
      "возбу": 2178,
      "одной": 2179,
      "находится": 2180,
      "Дмитрий": 2181,
      "ог": 2182,
      "шим": 2183,
      "берна": 2184,
      "комменти": 2185,
      "доста": 2186,
      "нологи": 2187,
      "пят": 2188,
      "мероприяти": 2189,
      "анти": 2190,
      "проекта": 2191,
      "сед": 2192,
      "емых": 2193,
      "Согла": 2194,
      "лим": 2195,
      "ook": 2196,
      "лено": 2197,
      "жил": 2198,
      "ост": 2199,
      "чных": 2200,
      "учи": 2201,
      "течение": 2202,
      "пей": 2203,
      "НА": 2204,
      "опас": 2205,
      "окру": 2206,
      "сборной": 2207,
      "количе": 2208,
      "просто": 2209,
      "ню": 2210,
      "sta": 2211,
      "ира": 2212,
      "гор": 2213,
      "вью": 2214,
      "ктора": 2215,
      "ене": 2216,
      "дение": 2217,
      "арест": 2218,
      "бом": 2219,
      "образом": 2220,
      "маши": 2221,
      "вместе": 2222,
      "низ": 2223,
      "жении": 2224,
      "хоро": 2225,
      "отмечает": 2226,
      "продук": 2227,
      "постав": 2228,
      "своих": 2229,
      "экономиче": 2230,
      "втор": 2231,
      "выпол": 2232,
      "правительства": 2233,
      "арти": 2234,
      "другие": 2235,
      "Гос": 2236,
      "ческих": 2237,
      "Поз": 2238,
      "россия": 2239,
      "дня": 2240,
      "останов": 2241,
      "противо": 2242,
      "женщин": 2243,
      "продолжа": 2244,
      "скольку": 2245,
      "Ле": 2246,
      "недель": 2247,
      "энер": 2248,
      "насе": 2249,
      "российской": 2250,
      "положи": 2251,
      "образова": 2252,
      "настоящее": 2253,
      "тельной": 2254,
      "региональ": 2255,
      "доступ": 2256,
      "намер": 2257,
      "вел": 2258,
      "рев": 2259,
      "деньги": 2260,
      "ена": 2261,
      "жела": 2262,
      "Если": 2263,
      "лиц": 2264,
      "деятель": 2265,
      "руководи": 2266,
      "29": 2267,
      "Face": 2268,
      "измен": 2269,
      "куль": 2270,
      "Ту": 2271,
      "вопрос": 2272,
      "спортсмен": 2273,
      "йдет": 2274,
      "обвиня": 2275,
      "назвал": 2276,
      "сол": 2277,
      "ствие": 2278,
      "ссо": 2279,
      "ственных": 2280,
      "100": 2281,
      "здо": 2282,
      "льные": 2283,
      "возду": 2284,
      "stagram": 2285,
      "ственный": 2286,
      "большо": 2287,
      "ень": 2288,
      "нор": 2289,
      "технологи": 2290,
      "июле": 2291,
      "чного": 2292,
      "группы": 2293,
      "60": 2294,
      "буду": 2295,
      "реа": 2296,
      "хот": 2297,
      "зависи": 2298,
      "коро": 2299,
      "нев": 2300,
      "посе": 2301,
      "своего": 2302,
      "Instagram": 2303,
      "суда": 2304,
      "чинов": 2305,
      "успе": 2306,
      "Сов": 2307,
      "апре": 2308,
      "назна": 2309,
      "интервью": 2310,
      "тю": 2311,
      "ожи": 2312,
      "пом": 2313,
      "назад": 2314,
      "форми": 2315,
      "заявили": 2316,
      "МВД": 2317,
      "оп": 2318,
      "миллиардов": 2319,
      "качестве": 2320,
      "соста": 2321,
      "отправи": 2322,
      "сек": 2323,
      "меры": 2324,
      "вар": 2325,
      "ложение": 2326,
      "ющей": 2327,
      "book": 2328,
      "жей": 2329,
      "дней": 2330,
      "кос": 2331,
      "данные": 2332,
      "Мини": 2333,
      "кая": 2334,
      "подготов": 2335,
      "Тур": 2336,
      "женщина": 2337,
      "реда": 2338,
      "зада": 2339,
      "Согласно": 2340,
      "прин": 2341,
      "вых": 2342,
      "40": 2343,
      "респон": 2344,
      "житель": 2345,
      "среди": 2346,
      "поскольку": 2347,
      "лез": 2348,
      "телям": 2349,
      "Facebook": 2350,
      "хра": 2351,
      "акка": 2352,
      "2015": 2353,
      "ждение": 2354,
      "собира": 2355,
      "ложения": 2356,
      "цов": 2357,
      "порт": 2358,
      "Жи": 2359,
      "августе": 2360,
      "ститу": 2361,
      "Чер": 2362,
      "дово": 2363,
      "re": 2364,
      "ети": 2365,
      "допол": 2366,
      "чил": 2367,
      "правля": 2368,
      "СК": 2369,
      "гоме": 2370,
      "права": 2371,
      "коммента": 2372,
      "развития": 2373,
      "попро": 2374,
      "аккаун": 2375,
      "потреб": 2376,
      "рования": 2377,
      "люди": 2378,
      "директор": 2379,
      "погиб": 2380,
      "СМИ": 2381,
      "Север": 2382,
      "инф": 2383,
      "ющим": 2384,
      "парти": 2385,
      "Сирии": 2386,
      "совершен": 2387,
      "рошенко": 2388,
      "ана": 2389,
      "ственно": 2390,
      "находя": 2391,
      "ете": 2392,
      "патри": 2393,
      "восто": 2394,
      "...": 2395,
      "пяти": 2396,
      "Андрей": 2397,
      "Порошенко": 2398,
      "никами": 2399,
      "взры": 2400,
      "чемпионата": 2401,
      "сентябре": 2402,
      "оцени": 2403,
      "мас": 2404,
      "места": 2405,
      "руковод": 2406,
      "новых": 2407,
      "роли": 2408,
      "янва": 2409,
      "бизнес": 2410,
      "закры": 2411,
      "стоит": 2412,
      "ig": 2413,
      "зин": 2414,
      "дал": 2415,
      "обсу": 2416,
      "чный": 2417,
      "мии": 2418,
      "мей": 2419,
      "лением": 2420,
      "тие": 2421,
      "тии": 2422,
      "обре": 2423,
      "35": 2424,
      "пита": 2425,
      "(«": 2426,
      "подписа": 2427,
      "льный": 2428,
      "тура": 2429,
      "летнего": 2430,
      "ion": 2431,
      "парта": 2432,
      "среду": 2433,
      "зии": 2434,
      "специаль": 2435,
      "лев": 2436,
      "российский": 2437,
      "ата": 2438,
      "распро": 2439,
      "губерна": 2440,
      "суб": 2441,
      "обеща": 2442,
      "Россией": 2443,
      "эй": 2444,
      "вор": 2445,
      "правоохра": 2446,
      "Герма": 2447,
      "системы": 2448,
      "News": 2449,
      "Для": 2450,
      "руется": 2451,
      "мого": 2452,
      "источник": 2453,
      "Дон": 2454,
      "жерт": 2455,
      "работу": 2456,
      "удов": 2457,
      "нить": 2458,
      "тили": 2459,
      "Кита": 2460,
      "рю": 2461,
      "ката": 2462,
      "популяр": 2463,
      "Кер": 2464,
      "политиче": 2465,
      "наблю": 2466,
      "un": 2467,
      "сме": 2468,
      "Кар": 2469,
      "оте": 2470,
      "ствуют": 2471,
      "благода": 2472,
      "секрета": 2473,
      "Интерфак": 2474,
      "надле": 2475,
      "Петербур": 2476,
      "Великобритании": 2477,
      "сказыва": 2478,
      "сить": 2479,
      "респондент": 2480,
      "туре": 2481,
      "двига": 2482,
      "своб": 2483,
      "времен": 2484,
      "стоимость": 2485,
      "смерти": 2486,
      "либо": 2487,
      "us": 2488,
      "фун": 2489,
      "поряд": 2490,
      "дене": 2491,
      "стреби": 2492,
      "времени": 2493,
      "выступ": 2494,
      "ведомства": 2495,
      "информацию": 2496,
      "брен": 2497,
      "фф": 2498,
      "каж": 2499,
      "31": 2500,
      "Красно": 2501,
      "Нур": 2502,
      "Бело": 2503,
      "сматри": 2504,
      "наде": 2505,
      "догово": 2506,
      "жителей": 2507,
      "летняя": 2508,
      "выясни": 2509,
      "парла": 2510,
      "сотрудники": 2511,
      "поэтому": 2512,
      "ol": 2513,
      "эн": 2514,
      "выступи": 2515,
      "жай": 2516,
      "бар": 2517,
      "обнаружили": 2518,
      "тил": 2519,
      "спорта": 2520,
      "ента": 2521,
      "оде": 2522,
      "Россию": 2523,
      "сон": 2524,
      "фигу": 2525,
      "хозя": 2526,
      "октябре": 2527,
      "мне": 2528,
      "член": 2529,
      "составляет": 2530,
      "След": 2531,
      "принадле": 2532,
      "которую": 2533,
      "свой": 2534,
      "произошед": 2535,
      "тяже": 2536,
      "im": 2537,
      "Бы": 2538,
      "агентства": 2539,
      "потому": 2540,
      "спец": 2541,
      "районе": 2542,
      "музы": 2543,
      "щества": 2544,
      "Трампа": 2545,
      "четверг": 2546,
      "председа": 2547,
      "турни": 2548,
      "кации": 2549,
      "подпи": 2550,
      "мимо": 2551,
      "лишь": 2552,
      "содержа": 2553,
      "компаний": 2554,
      "ствовать": 2555,
      "You": 2556,
      "вен": 2557,
      "кви": 2558,
      "предлага": 2559,
      "сообщила": 2560,
      "китай": 2561,
      "ческой": 2562,
      "торгов": 2563,
      "лот": 2564,
      "щие": 2565,
      "шений": 2566,
      "систе": 2567,
      "суде": 2568,
      "магоме": 2569,
      "собра": 2570,
      "дать": 2571,
      "Нурмагоме": 2572,
      "чат": 2573,
      "рами": 2574,
      "гля": 2575,
      "привле": 2576,
      "веден": 2577,
      "цин": 2578,
      "нуть": 2579,
      "первый": 2580,
      "ини": 2581,
      "крити": 2582,
      "енно": 2583,
      "лит": 2584,
      "подозрева": 2585,
      "арестова": 2586,
      "вшей": 2587,
      "впервые": 2588,
      "именно": 2589,
      "здоров": 2590,
      "патриар": 2591,
      "сотрудников": 2592,
      "обвинения": 2593,
      "правоохранитель": 2594,
      "сок": 2595,
      "истреби": 2596,
      "жной": 2597,
      "нок": 2598,
      "Вер": 2599,
      "наси": 2600,
      "скон": 2601,
      "связа": 2602,
      "шинг": 2603,
      "спу": 2604,
      "руют": 2605,
      "ube": 2606,
      "производи": 2607,
      "американского": 2608,
      "ФСБ": 2609,
      "уголовное": 2610,
      "полно": 2611,
      "лега": 2612,
      "отношения": 2613,
      "вторник": 2614,
      "Ав": 2615,
      "учен": 2616,
      "мае": 2617,
      "лимпи": 2618,
      "свидет": 2619,
      "поте": 2620,
      "военно": 2621,
      "Американ": 2622,
      "торы": 2623,
      "тах": 2624,
      "бок": 2625,
      "перь": 2626,
      "чув": 2627,
      "помощью": 2628,
      "задержан": 2629,
      "Вашинг": 2630,
      "чка": 2631,
      "столи": 2632,
      "ТО": 2633,
      "най": 2634,
      "тельных": 2635,
      "ото": 2636,
      "поступи": 2637,
      "стана": 2638,
      "ведения": 2639,
      "Киев": 2640,
      "Ди": 2641,
      "МС": 2642,
      "агентство": 2643,
      "Тогда": 2644,
      "идет": 2645,
      "обороны": 2646,
      "обяза": 2647,
      "опреде": 2648,
      "умер": 2649,
      "коллек": 2650,
      "Re": 2651,
      "лива": 2652,
      "отмечается": 2653,
      "Нико": 2654,
      "республики": 2655,
      "запа": 2656,
      "мире": 2657,
      "гражда": 2658,
      "замести": 2659,
      "предприяти": 2660,
      "цена": 2661,
      "решения": 2662,
      "тически": 2663,
      "центра": 2664,
      "запрещен": 2665,
      "Глава": 2666,
      "ro": 2667,
      "днее": 2668,
      "менее": 2669,
      "езд": 2670,
      "парт": 2671,
      "журналиста": 2672,
      "получили": 2673,
      "средств": 2674,
      "увер": 2675,
      "Нов": 2676,
      "запи": 2677,
      "часов": 2678,
      "никам": 2679,
      "внутрен": 2680,
      "пун": 2681,
      "конкур": 2682,
      "начали": 2683,
      "Ла": 2684,
      "упа": 2685,
      "део": 2686,
      "стар": 2687,
      "опубликовал": 2688,
      "таких": 2689,
      "ктов": 2690,
      "ранения": 2691,
      "опубликован": 2692,
      "комитета": 2693,
      "Tube": 2694,
      "Ста": 2695,
      "шению": 2696,
      "таль": 2697,
      "перегово": 2698,
      "ставили": 2699,
      "отметили": 2700,
      "шоу": 2701,
      "итогам": 2702,
      "лению": 2703,
      "ствии": 2704,
      "началь": 2705,
      "взя": 2706,
      "съ": 2707,
      "зай": 2708,
      "июне": 2709,
      "акти": 2710,
      "ent": 2711,
      "Ду": 2712,
      "гии": 2713,
      "программы": 2714,
      "очередь": 2715,
      "YouTube": 2716,
      "нику": 2717,
      "выпла": 2718,
      "жать": 2719,
      "нему": 2720,
      "телями": 2721,
      "интернет": 2722,
      "самолета": 2723,
      "призва": 2724,
      "Мужчи": 2725,
      "НР": 2726,
      "себе": 2727,
      "совмест": 2728,
      "профе": 2729,
      "фици": 2730,
      "работать": 2731,
      "смотря": 2732,
      "поки": 2733,
      "ch": 2734,
      "наказа": 2735,
      "пон": 2736,
      "одна": 2737,
      "серь": 2738,
      "нение": 2739,
      "проводи": 2740,
      "устрой": 2741,
      "син": 2742,
      "помощи": 2743,
      "сторон": 2744,
      "Ор": 2745,
      "колонии": 2746,
      "рейтин": 2747,
      "километров": 2748,
      "штра": 2749,
      "прекра": 2750,
      "ad": 2751,
      "точно": 2752,
      "aily": 2753,
      "включа": 2754,
      "пост": 2755,
      "ченко": 2756,
      "контра": 2757,
      "Daily": 2758,
      "сим": 2759,
      "сокра": 2760,
      "приобре": 2761,
      "ственные": 2762,
      "голосова": 2763,
      "многи": 2764,
      "версии": 2765,
      "превы": 2766,
      "ближай": 2767,
      "заключен": 2768,
      "срав": 2769,
      "дали": 2770,
      "которым": 2771,
      "бал": 2772,
      "ленных": 2773,
      "июня": 2774,
      "чные": 2775,
      "понедель": 2776,
      "демон": 2777,
      "сила": 2778,
      "меша": 2779,
      "военных": 2780,
      "борь": 2781,
      "различ": 2782,
      "ап": 2783,
      "опро": 2784,
      "Боль": 2785,
      "ровки": 2786,
      "прокомменти": 2787,
      "купи": 2788,
      "команды": 2789,
      "вода": 2790,
      "ческого": 2791,
      "пятницу": 2792,
      "свобод": 2793,
      "серьез": 2794,
      "российские": 2795,
      "странице": 2796,
      "Когда": 2797,
      "80": 2798,
      "пру": 2799,
      "Интерфакс": 2800,
      "иму": 2801,
      "обща": 2802,
      "диа": 2803,
      "чис": 2804,
      "нять": 2805,
      "служба": 2806,
      "тий": 2807,
      "мед": 2808,
      "самых": 2809,
      "позволя": 2810,
      "увеличи": 2811,
      "православ": 2812,
      "стоян": 2813,
      "ответствен": 2814,
      "понедельник": 2815,
      "исклю": 2816,
      "Мих": 2817,
      "новые": 2818,
      "месяцев": 2819,
      "нарко": 2820,
      "возможность": 2821,
      "необходимо": 2822,
      "Санкт": 2823,
      "прокура": 2824,
      "игро": 2825,
      "ровой": 2826,
      "слож": 2827,
      "кую": 2828,
      "такой": 2829,
      "лений": 2830,
      "эту": 2831,
      "клуба": 2832,
      "пин": 2833,
      "вока": 2834,
      "свое": 2835,
      "второй": 2836,
      "сделать": 2837,
      "цвет": 2838,
      "сона": 2839,
      "жит": 2840,
      "возможно": 2841,
      "льзу": 2842,
      "вым": 2843,
      "чки": 2844,
      "торов": 2845,
      "Украина": 2846,
      "другой": 2847,
      "тки": 2848,
      "моря": 2849,
      "тых": 2850,
      "ноябре": 2851,
      "годы": 2852,
      "стом": 2853,
      "шесть": 2854,
      "правительство": 2855,
      "средства": 2856,
      "лой": 2857,
      "нул": 2858,
      "сами": 2859,
      "арен": 2860,
      "этим": 2861,
      "Видео": 2862,
      "Московской": 2863,
      "медицин": 2864,
      "пояснил": 2865,
      "Серге": 2866,
      "пенсион": 2867,
      "la": 2868,
      "рэ": 2869,
      "юри": 2870,
      "бывшего": 2871,
      "трав": 2872,
      "период": 2873,
      "ia": 2874,
      "скры": 2875,
      "ваться": 2876,
      "поддержа": 2877,
      "ставить": 2878,
      "щем": 2879,
      "концер": 2880,
      "несколь": 2881,
      "движи": 2882,
      "женщины": 2883,
      "300": 2884,
      "незакон": 2885,
      "бывший": 2886,
      "суль": 2887,
      "должно": 2888,
      "церкви": 2889,
      "составе": 2890,
      "»).": 2891,
      "ничего": 2892,
      "лем": 2893,
      "изи": 2894,
      "сегод": 2895,
      "куп": 2896,
      "войны": 2897,
      "сегодня": 2898,
      "вания": 2899,
      "четырех": 2900,
      "сразу": 2901,
      "Восто": 2902,
      "оцен": 2903,
      "соц": 2904,
      "сю": 2905,
      "прошло": 2906,
      "стол": 2907,
      "шки": 2908,
      "регионе": 2909,
      "Медве": 2910,
      "оружия": 2911,
      "рынке": 2912,
      "яко": 2913,
      "полностью": 2914,
      "помощь": 2915,
      "особ": 2916,
      "ровала": 2917,
      "»)": 2918,
      "развед": 2919,
      "Путина": 2920,
      "стой": 2921,
      "цель": 2922,
      "использу": 2923,
      "ферен": 2924,
      "покупа": 2925,
      "пок": 2926,
      "вые": 2927,
      "выда": 2928,
      "тельные": 2929,
      "последние": 2930,
      "интерес": 2931,
      "жде": 2932,
      "язы": 2933,
      "четом": 2934,
      "МИД": 2935,
      "Кри": 2936,
      "получить": 2937,
      "вобо": 2938,
      "рить": 2939,
      "тей": 2940,
      "данных": 2941,
      "Поли": 2942,
      "марте": 2943,
      "заверши": 2944,
      "сель": 2945,
      "Между": 2946,
      "70": 2947,
      "яр": 2948,
      "нила": 2949,
      "вый": 2950,
      "этих": 2951,
      "секретарь": 2952,
      "важ": 2953,
      "заседа": 2954,
      "Би": 2955,
      "фев": 2956,
      "считают": 2957,
      "Крем": 2958,
      "ван": 2959,
      "тельного": 2960,
      "дентом": 2961,
      "санкции": 2962,
      "жить": 2963,
      "клуб": 2964,
      "ОО": 2965,
      "вала": 2966,
      "выро": 2967,
      "внеш": 2968,
      "аккаунте": 2969,
      "Медведе": 2970,
      "St": 2971,
      "джи": 2972,
      "услу": 2973,
      "представля": 2974,
      "современ": 2975,
      "убе": 2976,
      "попыт": 2977,
      "Ти": 2978,
      "зву": 2979,
      "окон": 2980,
      "плат": 2981,
      "сексу": 2982,
      "якобы": 2983,
      "зар": 2984,
      "требу": 2985,
      "собой": 2986,
      "объек": 2987,
      "ot": 2988,
      "проте": 2989,
      "сад": 2990,
      "финансов": 2991,
      "Лон": 2992,
      "имени": 2993,
      "эфи": 2994,
      "лах": 2995,
      "ори": 2996,
      "карь": 2997,
      "неодно": 2998,
      "предполага": 2999,
      "священ": 3000,
      "дополнитель": 3001,
      "сбе": 3002,
      "тогда": 3003,
      "лого": 3004,
      "имеет": 3005,
      "Керчен": 3006,
      "Ри": 3007,
      "шем": 3008,
      "Подмосков": 3009,
      "Франции": 3010,
      "патриарха": 3011,
      "газета": 3012,
      "санкций": 3013,
      "шлось": 3014,
      "ланд": 3015,
      "ri": 3016,
      "прос": 3017,
      "выра": 3018,
      "ситуации": 3019,
      "Донба": 3020,
      "данный": 3021,
      "инвести": 3022,
      "ess": 3023,
      "нужно": 3024,
      "Сою": 3025,
      "дает": 3026,
      "ществ": 3027,
      "случи": 3028,
      "агре": 3029,
      "февра": 3030,
      "Бри": 3031,
      "види": 3032,
      "станет": 3033,
      "новый": 3034,
      "Аб": 3035,
      "вшая": 3036,
      "цидент": 3037,
      "ходят": 3038,
      "кратно": 3039,
      "Инцидент": 3040,
      "Лю": 3041,
      "ПЦ": 3042,
      "ьев": 3043,
      "стка": 3044,
      "потребова": 3045,
      "вую": 3046,
      "техниче": 3047,
      "фран": 3048,
      "рина": 3049,
      "ленные": 3050,
      "количество": 3051,
      "инициа": 3052,
      "хе": 3053,
      "серви": 3054,
      "банка": 3055,
      "европей": 3056,
      "ребенка": 3057,
      "связан": 3058,
      "редак": 3059,
      "Гу": 3060,
      "встреча": 3061,
      "соверши": 3062,
      "кер": 3063,
      "лер": 3064,
      "постоян": 3065,
      "пропа": 3066,
      "федераль": 3067,
      "пет": 3068,
      "щении": 3069,
      "девя": 3070,
      "Среди": 3071,
      "влия": 3072,
      "бюджет": 3073,
      "апреле": 3074,
      "сотрудниче": 3075,
      "клад": 3076,
      "хоте": 3077,
      "дон": 3078,
      "скор": 3079,
      "тельный": 3080,
      "глу": 3081,
      "раба": 3082,
      "выше": 3083,
      "ждено": 3084,
      "конфлик": 3085,
      "бин": 3086,
      "цены": 3087,
      "крупней": 3088,
      "мог": 3089,
      "выраз": 3090,
      "Евг": 3091,
      "Миха": 3092,
      "такие": 3093,
      "состав": 3094,
      "тый": 3095,
      "море": 3096,
      "возвра": 3097,
      "вероят": 3098,
      "НАТО": 3099,
      "деятельности": 3100,
      "новой": 3101,
      "лье": 3102,
      "больницу": 3103,
      "and": 3104,
      "нового": 3105,
      "свидетель": 3106,
      "FC": 3107,
      "таким": 3108,
      "группи": 3109,
      "канале": 3110,
      "согласи": 3111,
      "Mail": 3112,
      "Ее": 3113,
      "раза": 3114,
      "сирий": 3115,
      "матиче": 3116,
      "провин": 3117,
      "произошло": 3118,
      "долго": 3119,
      "площад": 3120,
      "ам": 3121,
      "благо": 3122,
      "професси": 3123,
      "зон": 3124,
      "ятся": 3125,
      "тики": 3126,
      "пан": 3127,
      "страли": 3128,
      "квадра": 3129,
      "встречи": 3130,
      "оказался": 3131,
      "дерации": 3132,
      "Ch": 3133,
      "лидера": 3134,
      "недвижи": 3135,
      "иностранных": 3136,
      "штраф": 3137,
      "руд": 3138,
      "представители": 3139,
      "жены": 3140,
      "тного": 3141,
      "шан": 3142,
      "Макгре": 3143,
      "ждый": 3144,
      "раиль": 3145,
      "сконча": 3146,
      "Китай": 3147,
      "мужчины": 3148,
      "сумму": 3149,
      "лоу": 3150,
      "тья": 3151,
      "ффек": 3152,
      "ково": 3153,
      "уди": 3154,
      "информацион": 3155,
      "воды": 3156,
      "жем": 3157,
      "рование": 3158,
      "Скри": 3159,
      "Коко": 3160,
      "квартиры": 3161,
      "рассказали": 3162,
      "ra": 3163,
      "ел": 3164,
      "лота": 3165,
      "мать": 3166,
      "служа": 3167,
      "гене": 3168,
      "кет": 3169,
      "дорож": 3170,
      "хозяй": 3171,
      "здание": 3172,
      "должна": 3173,
      "дида": 3174,
      "нефти": 3175,
      "лица": 3176,
      "корреспондент": 3177,
      "наи": 3178,
      "Констан": 3179,
      "визи": 3180,
      "список": 3181,
      "предупре": 3182,
      "Бер": 3183,
      "тр": 3184,
      "ресу": 3185,
      "собствен": 3186,
      "реаги": 3187,
      "порядка": 3188,
      "Лен": 3189,
      "ич": 3190,
      "запись": 3191,
      "мин": 3192,
      "дипло": 3193,
      "скоре": 3194,
      "пала": 3195,
      "бес": 3196,
      "законода": 3197,
      "предложил": 3198,
      "уво": 3199,
      "ходить": 3200,
      "Госду": 3201,
      "igh": 3202,
      "нескольких": 3203,
      "неоднократно": 3204,
      "эффек": 3205,
      "порту": 3206,
      "УК": 3207,
      "ава": 3208,
      "посети": 3209,
      "ele": 3210,
      "Сергея": 3211,
      "сфе": 3212,
      "вол": 3213,
      "дия": 3214,
      "мага": 3215,
      "бир": 3216,
      "Владимира": 3217,
      "украинских": 3218,
      "состоянии": 3219,
      "одном": 3220,
      "Экс": 3221,
      "чина": 3222,
      "бира": 3223,
      "Май": 3224,
      "истории": 3225,
      "заявление": 3226,
      "партии": 3227,
      "Нурмагомедов": 3228,
      "освобо": 3229,
      "сетях": 3230,
      "минут": 3231,
      "Иго": 3232,
      "отсут": 3233,
      "уточнил": 3234,
      "поме": 3235,
      "чик": 3236,
      "объем": 3237,
      "отметила": 3238,
      "вого": 3239,
      "делу": 3240,
      "пройдет": 3241,
      "разд": 3242,
      "предпринима": 3243,
      "операции": 3244,
      "ракеты": 3245,
      "вооружен": 3246,
      "района": 3247,
      "Сот": 3248,
      "зона": 3249,
      "пришлось": 3250,
      "оказались": 3251,
      "правоохранительных": 3252,
      "собе": 3253,
      "дже": 3254,
      "рения": 3255,
      "ук": 3256,
      "ними": 3257,
      "присут": 3258,
      "газа": 3259,
      "правитель": 3260,
      "шинство": 3261,
      "Глав": 3262,
      "являются": 3263,
      "относи": 3264,
      "цуз": 3265,
      "Скрипа": 3266,
      "супру": 3267,
      "рованы": 3268,
      "месяц": 3269,
      "напада": 3270,
      "ипоте": 3271,
      "модель": 3272,
      "разработ": 3273,
      "провел": 3274,
      "единен": 3275,
      "Что": 3276,
      "опубликовано": 3277,
      "Представи": 3278,
      "еже": 3279,
      "лях": 3280,
      "директора": 3281,
      "кров": 3282,
      "пси": 3283,
      "Крым": 3284,
      "физи": 3285,
      "рок": 3286,
      "кино": 3287,
      "ческие": 3288,
      "жители": 3289,
      "UFC": 3290,
      "задержали": 3291,
      "срок": 3292,
      "объявил": 3293,
      "чении": 3294,
      "зам": 3295,
      "овая": 3296,
      "менте": 3297,
      "страте": 3298,
      "месяца": 3299,
      "воздуш": 3300,
      "сексуаль": 3301,
      "ано": 3302,
      "всем": 3303,
      "вза": 3304,
      "попыта": 3305,
      "мах": 3306,
      "всегда": 3307,
      "потеря": 3308,
      "Германии": 3309,
      "Международ": 3310,
      "Помимо": 3311,
      "фикси": 3312,
      "шает": 3313,
      "космиче": 3314,
      "лоб": 3315,
      "чита": 3316,
      "предположи": 3317,
      "алкого": 3318,
      "вшим": 3319,
      "сери": 3320,
      "били": 3321,
      "объект": 3322,
      "остан": 3323,
      "понима": 3324,
      "вок": 3325,
      "сказала": 3326,
      "ехал": 3327,
      "релизе": 3328,
      "нению": 3329,
      "сва": 3330,
      "заболе": 3331,
      "винов": 3332,
      "приняли": 3333,
      "участников": 3334,
      "большой": 3335,
      "вице": 3336,
      "генераль": 3337,
      "ыми": 3338,
      "доказа": 3339,
      "Александра": 3340,
      "денег": 3341,
      "Мужчина": 3342,
      "подели": 3343,
      "могли": 3344,
      "Tele": 3345,
      "объясни": 3346,
      "Хо": 3347,
      "пово": 3348,
      "чном": 3349,
      "дево": 3350,
      "Министер": 3351,
      "свет": 3352,
      "узна": 3353,
      "вин": 3354,
      "жилья": 3355,
      "министер": 3356,
      "уве": 3357,
      "Националь": 3358,
      "пользователей": 3359,
      "кус": 3360,
      "итоге": 3361,
      "бизне": 3362,
      "девушка": 3363,
      "Пи": 3364,
      "указыва": 3365,
      "никогда": 3366,
      "мигра": 3367,
      "бил": 3368,
      "стреми": 3369,
      "бай": 3370,
      "одним": 3371,
      "получила": 3372,
      "жизнь": 3373,
      "Ленте": 3374,
      "!»": 3375,
      "изобра": 3376,
      "центре": 3377,
      "зоне": 3378,
      "остров": 3379,
      "взрыв": 3380,
      "воду": 3381,
      "осужден": 3382,
      "назначен": 3383,
      "Сей": 3384,
      "йского": 3385,
      "нашли": 3386,
      "комму": 3387,
      "кандида": 3388,
      "национальной": 3389,
      "Бар": 3390,
      "заявля": 3391,
      "примерно": 3392,
      "игры": 3393,
      "лам": 3394,
      "неизвест": 3395,
      "штаб": 3396,
      "\",": 3397,
      "Ал": 3398,
      "Жен": 3399,
      "нос": 3400,
      "лив": 3401,
      "промышлен": 3402,
      "органов": 3403,
      "расположен": 3404,
      "цем": 3405,
      "носи": 3406,
      "группа": 3407,
      "проблемы": 3408,
      "празд": 3409,
      "ями": 3410,
      "гой": 3411,
      "добы": 3412,
      "говорил": 3413,
      "уничто": 3414,
      "емого": 3415,
      "пообеща": 3416,
      "своим": 3417,
      "грози": 3418,
      "преступления": 3419,
      "РУ": 3420,
      "тол": 3421,
      "верх": 3422,
      "Всего": 3423,
      "Дональд": 3424,
      "рот": 3425,
      "Ад": 3426,
      "объяв": 3427,
      "сах": 3428,
      "Вороб": 3429,
      "учре": 3430,
      "универси": 3431,
      "действий": 3432,
      "Сотруд": 3433,
      "гна": 3434,
      "департа": 3435,
      "скоро": 3436,
      "Рес": 3437,
      "ум": 3438,
      "док": 3439,
      "круг": 3440,
      "рит": 3441,
      "отве": 3442,
      "мец": 3443,
      "чему": 3444,
      "раскры": 3445,
      "собы": 3446,
      "Европы": 3447,
      "Республи": 3448,
      "500": 3449,
      "ters": 3450,
      "област": 3451,
      "полномо": 3452,
      "No": 3453,
      "тельным": 3454,
      "друг": 3455,
      "фору": 3456,
      "службе": 3457,
      "террористиче": 3458,
      "рекла": 3459,
      "обу": 3460,
      "актри": 3461,
      "метра": 3462,
      "соответству": 3463,
      "фотографии": 3464,
      "судеб": 3465,
      "деть": 3466,
      "второ": 3467,
      "блоки": 3468,
      "ay": 3469,
      "ur": 3470,
      "говой": 3471,
      "сним": 3472,
      "церков": 3473,
      "журналист": 3474,
      "матче": 3475,
      "доволь": 3476,
      "льщи": 3477,
      "дис": 3478,
      "статьи": 3479,
      "бот": 3480,
      "лее": 3481,
      "Песков": 3482,
      "Нью": 3483,
      "гом": 3484,
      "исследования": 3485,
      "оконча": 3486,
      "реаль": 3487,
      "начал": 3488,
      "президентом": 3489,
      "матча": 3490,
      "аппара": 3491,
      "кому": 3492,
      "тек": 3493,
      "ходов": 3494,
      "ard": 3495,
      "погибли": 3496,
      "распоря": 3497,
      "тюрь": 3498,
      "примен": 3499,
      "ющее": 3500,
      "раструк": 3501,
      "прим": 3502,
      "российским": 3503,
      "уточня": 3504,
      "партне": 3505,
      "вом": 3506,
      "емый": 3507,
      "пуск": 3508,
      "размере": 3509,
      "Федераль": 3510,
      "вариан": 3511,
      "собесед": 3512,
      "звез": 3513,
      "тной": 3514,
      "случай": 3515,
      "следует": 3516,
      "инфраструк": 3517,
      "инициати": 3518,
      "прог": 3519,
      "вшем": 3520,
      "назвали": 3521,
      "oc": 3522,
      "ремон": 3523,
      "связ": 3524,
      "военной": 3525,
      "Российский": 3526,
      "Sp": 3527,
      "os": 3528,
      "дем": 3529,
      "мене": 3530,
      "ционного": 3531,
      "самым": 3532,
      "Крыма": 3533,
      "инцидента": 3534,
      "демонстри": 3535,
      "чным": 3536,
      "пой": 3537,
      "гос": 3538,
      "гани": 3539,
      "ходы": 3540,
      "Таким": 3541,
      "высоко": 3542,
      "ru": 3543,
      "щим": 3544,
      "жена": 3545,
      "Позднее": 3546,
      "солют": 3547,
      "оши": 3548,
      "опла": 3549,
      "путе": 3550,
      "шать": 3551,
      "военные": 3552,
      "документа": 3553,
      "находятся": 3554,
      "ВС": 3555,
      "бов": 3556,
      "число": 3557,
      "град": 3558,
      "восстанов": 3559,
      "джа": 3560,
      "направи": 3561,
      "мере": 3562,
      "журна": 3563,
      "уровне": 3564,
      "зом": 3565,
      "вшегося": 3566,
      "Сейчас": 3567,
      "поко": 3568,
      "вече": 3569,
      "действу": 3570,
      "Сол": 3571,
      "свободы": 3572,
      "рабаты": 3573,
      "кта": 3574,
      "наро": 3575,
      "летом": 3576,
      "Мино": 3577,
      "корабля": 3578,
      "возраста": 3579,
      "магази": 3580,
      "ено": 3581,
      "куда": 3582,
      "Кие": 3583,
      "id": 3584,
      "имя": 3585,
      "сохра": 3586,
      "Верхов": 3587,
      "гон": 3588,
      "мужчин": 3589,
      "комитет": 3590,
      "портал": 3591,
      "дальней": 3592,
      "ight": 3593,
      "неш": 3594,
      "конца": 3595,
      "транспорт": 3596,
      "II": 3597,
      "зма": 3598,
      "ясня": 3599,
      "рассматри": 3600,
      "рубля": 3601,
      "отказался": 3602,
      "Кор": 3603,
      "рекор": 3604,
      "карти": 3605,
      "тар": 3606,
      "середи": 3607,
      "лети": 3608,
      "Чеч": 3609,
      "th": 3610,
      "сдел": 3611,
      "роз": 3612,
      "льным": 3613,
      "рудова": 3614,
      "допусти": 3615,
      "купа": 3616,
      "ситуацию": 3617,
      "видно": 3618,
      "эксперты": 3619,
      "Al": 3620,
      "гает": 3621,
      "Учен": 3622,
      "машин": 3623,
      "возрасте": 3624,
      "вида": 3625,
      "пригово": 3626,
      "первой": 3627,
      "пользу": 3628,
      "благодаря": 3629,
      "ина": 3630,
      "ваются": 3631,
      "возгла": 3632,
      "мужчину": 3633,
      "Суд": 3634,
      "тальян": 3635,
      "тные": 3636,
      "нина": 3637,
      "измени": 3638,
      "ческий": 3639,
      "кация": 3640,
      "бороны": 3641,
      "бере": 3642,
      "родствен": 3643,
      "обязан": 3644,
      "достаточно": 3645,
      "принадлежа": 3646,
      "Воз": 3647,
      "нюю": 3648,
      "эффектив": 3649,
      "Дени": 3650,
      "чку": 3651,
      "восемь": 3652,
      "2013": 3653,
      "оборудова": 3654,
      "провод": 3655,
      "адвока": 3656,
      "Российской": 3657,
      "выборы": 3658,
      "населения": 3659,
      "ap": 3660,
      "иска": 3661,
      "инцидент": 3662,
      "ожида": 3663,
      "независи": 3664,
      "чика": 3665,
      "муж": 3666,
      "провести": 3667,
      "возможности": 3668,
      "предостав": 3669,
      "BC": 3670,
      "вей": 3671,
      "Алексей": 3672,
      "электрон": 3673,
      "Минобороны": 3674,
      "шую": 3675,
      "шести": 3676,
      "первого": 3677,
      "Белору": 3678,
      "иться": 3679,
      "ядер": 3680,
      "отрав": 3681,
      "беж": 3682,
      "представ": 3683,
      "банков": 3684,
      "Ана": 3685,
      "памя": 3686,
      "ентов": 3687,
      "планируется": 3688,
      "uters": 3689,
      "ЕС": 3690,
      "десь": 3691,
      "вес": 3692,
      "Reuters": 3693,
      "37": 3694,
      "ала": 3695,
      "чеб": 3696,
      "решил": 3697,
      "ut": 3698,
      "шком": 3699,
      "ющая": 3700,
      "онал": 3701,
      "Доне": 3702,
      "нных": 3703,
      "ологи": 3704,
      "гол": 3705,
      "чать": 3706,
      "тые": 3707,
      "близ": 3708,
      "планирует": 3709,
      "декабре": 3710,
      "наблюда": 3711,
      "Вто": 3712,
      "еры": 3713,
      "леты": 3714,
      "район": 3715,
      "написала": 3716,
      "авиакомпании": 3717,
      "убийства": 3718,
      "кими": 3719,
      "друга": 3720,
      "снизи": 3721,
      "смогут": 3722,
      "следствия": 3723,
      "лимпий": 3724,
      "акции": 3725,
      "улице": 3726,
      "первом": 3727,
      "заместитель": 3728,
      "Донец": 3729,
      "речь": 3730,
      "стату": 3731,
      "сем": 3732,
      "причиной": 3733,
      "интере": 3734,
      "чное": 3735,
      "мощ": 3736,
      "предъ": 3737,
      "возник": 3738,
      "статье": 3739,
      "происше": 3740,
      "распростран": 3741,
      "Воробьев": 3742,
      "45": 3743,
      "Спе": 3744,
      "нной": 3745,
      "некоторые": 3746,
      "теперь": 3747,
      "прось": 3748,
      "комна": 3749,
      "работе": 3750,
      "лый": 3751,
      "похо": 3752,
      "нией": 3753,
      "делать": 3754,
      "вмеша": 3755,
      "тный": 3756,
      "выну": 3757,
      "летней": 3758,
      "признал": 3759,
      "Джон": 3760,
      "француз": 3761,
      "Дру": 3762,
      "слов": 3763,
      "деля": 3764,
      "пада": 3765,
      "198": 3766,
      "принял": 3767,
      "килограм": 3768,
      "возбуждено": 3769,
      "Гру": 3770,
      "оло": 3771,
      "чную": 3772,
      "еты": 3773,
      "оператив": 3774,
      "ере": 3775,
      "здра": 3776,
      "кипа": 3777,
      "отвер": 3778,
      "выпусти": 3779,
      "организова": 3780,
      "Турции": 3781,
      "бизнесмен": 3782,
      "счетом": 3783,
      "парламента": 3784,
      "эфире": 3785,
      "Оль": 3786,
      "заве": 3787,
      "пром": 3788,
      "колле": 3789,
      "администрации": 3790,
      "прокомментировал": 3791,
      "Air": 3792,
      "науч": 3793,
      "тино": 3794,
      "дизай": 3795,
      "чие": 3796,
      "щать": 3797,
      "край": 3798,
      "Мама": 3799,
      "считы": 3800,
      "поле": 3801,
      "рили": 3802,
      "испыта": 3803,
      "адрес": 3804,
      "имена": 3805,
      "рынка": 3806,
      "утверждает": 3807,
      "Ученые": 3808,
      "ДНР": 3809,
      "нашей": 3810,
      "Коре": 3811,
      "шением": 3812,
      "тельница": 3813,
      "американских": 3814,
      "молоды": 3815,
      "путеше": 3816,
      "нике": 3817,
      "экономики": 3818,
      "союз": 3819,
      "феврале": 3820,
      "стратеги": 3821,
      "кате": 3822,
      "лод": 3823,
      "мые": 3824,
      "января": 3825,
      "мошен": 3826,
      "получен": 3827,
      "полицию": 3828,
      "целью": 3829,
      "емые": 3830,
      "ссия": 3831,
      "квартир": 3832,
      "нефть": 3833,
      "уровень": 3834,
      "ресур": 3835,
      "лле": 3836,
      "стр": 3837,
      "поддержи": 3838,
      "БК": 3839,
      "напом": 3840,
      "Владими": 3841,
      "самми": 3842,
      "меньше": 3843,
      "электро": 3844,
      "Ис": 3845,
      "Сто": 3846,
      "крас": 3847,
      "лых": 3848,
      "каждый": 3849,
      "пущен": 3850,
      "Централь": 3851,
      "сфере": 3852,
      "комен": 3853,
      "скан": 3854,
      "совета": 3855,
      "друз": 3856,
      "территори": 3857,
      "ber": 3858,
      "енко": 3859,
      "вили": 3860,
      "выигра": 3861,
      "люби": 3862,
      "Кали": 3863,
      "функ": 3864,
      "орва": 3865,
      "держи": 3866,
      "спек": 3867,
      "57": 3868,
      "Аль": 3869,
      "Ген": 3870,
      "употреб": 3871,
      "яз": 3872,
      "вшись": 3873,
      "борту": 3874,
      "покуп": 3875,
      "доме": 3876,
      "ровано": 3877,
      "решили": 3878,
      "изо": 3879,
      "сделал": 3880,
      "конфликта": 3881,
      "чная": 3882,
      "лад": 3883,
      "зафикси": 3884,
      "рядом": 3885,
      "американский": 3886,
      "тона": 3887,
      "несмотря": 3888,
      "никто": 3889,
      "согласно": 3890,
      "телеканала": 3891,
      "of": 3892,
      "Ронал": 3893,
      "гри": 3894,
      "пограни": 3895,
      "тирует": 3896,
      "доне": 3897,
      "ционе": 3898,
      "май": 3899,
      "ждении": 3900,
      "пользователи": 3901,
      "Газ": 3902,
      "Федерации": 3903,
      "совершенно": 3904,
      "модели": 3905,
      "мало": 3906,
      "чили": 3907,
      "щина": 3908,
      "вов": 3909,
      "фри": 3910,
      "штат": 3911,
      "профессиональ": 3912,
      "емой": 3913,
      "постанов": 3914,
      "ликт": 3915,
      "проходи": 3916,
      "Пользова": 3917,
      "дороги": 3918,
      "Один": 3919,
      "гети": 3920,
      "поня": 3921,
      "каса": 3922,
      "Po": 3923,
      "зах": 3924,
      "теку": 3925,
      "прош": 3926,
      "предвари": 3927,
      "владель": 3928,
      "регионального": 3929,
      "увелич": 3930,
      "Ло": 3931,
      "еру": 3932,
      "тельств": 3933,
      "телефон": 3934,
      "фоне": 3935,
      "ствовал": 3936,
      "спортив": 3937,
      "музыкан": 3938,
      "Нор": 3939,
      "спро": 3940,
      "пригла": 3941,
      "ционной": 3942,
      "станции": 3943,
      "аналоги": 3944,
      "знаком": 3945,
      "ционных": 3946,
      "уро": 3947,
      "полови": 3948,
      "обнов": 3949,
      "телю": 3950,
      "зарпла": 3951,
      "?»": 3952,
      "рекомен": 3953,
      "льное": 3954,
      "овал": 3955,
      "актер": 3956,
      "полиция": 3957,
      "объяснил": 3958,
      "втором": 3959,
      "союза": 3960,
      "пле": 3961,
      "еров": 3962,
      "мера": 3963,
      "часто": 3964,
      "выступления": 3965,
      "Азов": 3966,
      "надо": 3967,
      "дочь": 3968,
      "макси": 3969,
      "приве": 3970,
      "годах": 3971,
      "движения": 3972,
      "уровня": 3973,
      "Дже": 3974,
      "кл": 3975,
      "фин": 3976,
      "миниму": 3977,
      "шенных": 3978,
      "хотя": 3979,
      "прогно": 3980,
      "**": 3981,
      "ve": 3982,
      "Фото": 3983,
      "коне": 3984,
      "госпи": 3985,
      "заплани": 3986,
      "ation": 3987,
      "транс": 3988,
      "Ph": 3989,
      "хочет": 3990,
      "искус": 3991,
      "ставил": 3992,
      "регистри": 3993,
      "говорить": 3994,
      "лайн": 3995,
      "стями": 3996,
      "десяти": 3997,
      "военнослужа": 3998,
      "Экспер": 3999,
      "Бан": 4000,
      "НД": 4001,
      "производства": 4002,
      "комментари": 4003,
      "СР": 4004,
      "Ча": 4005,
      "поста": 4006,
      "тари": 4007,
      "тиков": 4008,
      "мок": 4009,
      "отдель": 4010,
      "тради": 4011,
      "чемпион": 4012,
      "защитник": 4013,
      "мероприятия": 4014,
      "похи": 4015,
      "печат": 4016,
      "брать": 4017,
      "семьи": 4018,
      "попал": 4019,
      "прошлого": 4020,
      "кни": 4021,
      "снова": 4022,
      "мога": 4023,
      "информация": 4024,
      "Саудов": 4025,
      "ствовали": 4026,
      "мили": 4027,
      "сообщения": 4028,
      "энергети": 4029,
      "призвал": 4030,
      "сколько": 4031,
      "документы": 4032,
      "включая": 4033,
      "устро": 4034,
      "потен": 4035,
      "циф": 4036,
      "циях": 4037,
      "класса": 4038,
      "состояние": 4039,
      "губернатор": 4040,
      "Ким": 4041,
      "двое": 4042,
      "ир": 4043,
      "непри": 4044,
      "гах": 4045,
      "система": 4046,
      "Telegram": 4047,
      "пошли": 4048,
      "тоже": 4049,
      "такое": 4050,
      "моз": 4051,
      "семей": 4052,
      "бора": 4053,
      "персона": 4054,
      "Там": 4055,
      "Арави": 4056,
      "тка": 4057,
      "стива": 4058,
      "рассказыва": 4059,
      "принять": 4060,
      "насилова": 4061,
      "Ман": 4062,
      "ностей": 4063,
      "гости": 4064,
      "меха": 4065,
      "туру": 4066,
      "слишком": 4067,
      "американской": 4068,
      "истори": 4069,
      "победи": 4070,
      "тонн": 4071,
      "финанси": 4072,
      "расследование": 4073,
      "членов": 4074,
      "найден": 4075,
      "сможет": 4076,
      "тело": 4077,
      "страну": 4078,
      "полков": 4079,
      "позволи": 4080,
      "требования": 4081,
      "выборов": 4082,
      "давно": 4083,
      "33": 4084,
      "Tim": 4085,
      "отмени": 4086,
      "жила": 4087,
      "прак": 4088,
      "административ": 4089,
      "налогов": 4090,
      "Джа": 4091,
      "роль": 4092,
      "подня": 4093,
      "летов": 4094,
      "признался": 4095,
      "машины": 4096,
      "65": 4097,
      "территорию": 4098,
      "строительства": 4099,
      "отече": 4100,
      "дется": 4101,
      "ресто": 4102,
      "тию": 4103,
      "обвинили": 4104,
      "позиции": 4105,
      "имо": 4106,
      "вышел": 4107,
      "желез": 4108,
      "ленный": 4109,
      "девушки": 4110,
      "шку": 4111,
      "годов": 4112,
      "силу": 4113,
      "нут": 4114,
      "подвер": 4115,
      "говорит": 4116,
      "банк": 4117,
      "команду": 4118,
      "изменения": 4119,
      "Вашингтон": 4120,
      "провинции": 4121,
      "наиболее": 4122,
      "Игорь": 4123,
      "ress": 4124,
      "СИ": 4125,
      "дро": 4126,
      "соль": 4127,
      "тельстве": 4128,
      "de": 4129,
      "ЗО": 4130,
      "Их": 4131,
      "чиков": 4132,
      "химиче": 4133,
      "представителей": 4134,
      "осуществ": 4135,
      "регуляр": 4136,
      "оказыва": 4137,
      "созна": 4138,
      "чает": 4139,
      "экстреми": 4140,
      "ort": 4141,
      "Роналду": 4142,
      "посвящен": 4143,
      "роста": 4144,
      "капита": 4145,
      "вось": 4146,
      "2011": 4147,
      "нарушения": 4148,
      "работал": 4149,
      "канал": 4150,
      "властей": 4151,
      "силы": 4152,
      "прод": 4153,
      "пад": 4154,
      "успеш": 4155,
      "январе": 4156,
      "мно": 4157,
      "яс": 4158,
      "потом": 4159,
      "состои": 4160,
      "инди": 4161,
      "люд": 4162,
      "ставки": 4163,
      "est": 4164,
      "источники": 4165,
      "животных": 4166,
      "состоится": 4167,
      "вступи": 4168,
      "ливо": 4169,
      "кварта": 4170,
      "Петр": 4171,
      "проектов": 4172,
      "трени": 4173,
      "взаимо": 4174,
      "ac": 4175,
      "деше": 4176,
      "изнасилова": 4177,
      "конферен": 4178,
      "комплекса": 4179,
      "телеканал": 4180,
      "ООН": 4181,
      "Ша": 4182,
      "дво": 4183,
      "стру": 4184,
      "найти": 4185,
      "поясни": 4186,
      "сот": 4187,
      "семи": 4188,
      "быстро": 4189,
      "форм": 4190,
      "следователи": 4191,
      "работает": 4192,
      "защиты": 4193,
      "молоде": 4194,
      "Дональда": 4195,
      "дри": 4196,
      "ец": 4197,
      "стю": 4198,
      "претен": 4199,
      "плохо": 4200,
      "квартиру": 4201,
      "кампа": 4202,
      "обсужда": 4203,
      "аб": 4204,
      "зри": 4205,
      "вались": 4206,
      "ственным": 4207,
      "поколения": 4208,
      "щер": 4209,
      "гар": 4210,
      "беспо": 4211,
      "мых": 4212,
      "тво": 4213,
      "певи": 4214,
      "середине": 4215,
      "итальян": 4216,
      "экипа": 4217,
      "юсь": 4218,
      "ночь": 4219,
      "приходи": 4220,
      "ниях": 4221,
      "2012": 4222,
      "англи": 4223,
      "публикации": 4224,
      "геро": 4225,
      "использовать": 4226,
      "СКР": 4227,
      "РБК": 4228,
      "ФА": 4229,
      "гора": 4230,
      "ленной": 4231,
      "ian": 4232,
      "вам": 4233,
      "тье": 4234,
      "присо": 4235,
      "расши": 4236,
      "проведен": 4237,
      "all": 4238,
      "выразил": 4239,
      "сна": 4240,
      "харак": 4241,
      "появилась": 4242,
      "спаса": 4243,
      "Китая": 4244,
      "бизнеса": 4245,
      "ab": 4246,
      "ag": 4247,
      "пля": 4248,
      "рана": 4249,
      "зация": 4250,
      "нега": 4251,
      "часа": 4252,
      "жает": 4253,
      "отмечают": 4254,
      "многие": 4255,
      "НК": 4256,
      "ссу": 4257,
      "нынеш": 4258,
      "вошли": 4259,
      "цене": 4260,
      "составил": 4261,
      "распростра": 4262,
      "сда": 4263,
      "сор": 4264,
      "действительно": 4265,
      "худ": 4266,
      "руководитель": 4267,
      "записи": 4268,
      "объектов": 4269,
      "Йор": 4270,
      "улуч": 4271,
      "масс": 4272,
      "изви": 4273,
      "ктер": 4274,
      "фестива": 4275,
      "генера": 4276,
      "строительство": 4277,
      "ссоциа": 4278,
      "турец": 4279,
      "90": 4280,
      "тное": 4281,
      "управля": 4282,
      "рубеж": 4283,
      "отли": 4284,
      "столич": 4285,
      "проблем": 4286,
      "скончался": 4287,
      "Власти": 4288,
      "Испа": 4289,
      "разгово": 4290,
      "границы": 4291,
      "края": 4292,
      "опубликовала": 4293,
      "автомобиль": 4294,
      "потерпе": 4295,
      "активи": 4296,
      "ака": 4297,
      "зме": 4298,
      "кад": 4299,
      "верто": 4300,
      "шек": 4301,
      "сыгра": 4302,
      "добавила": 4303,
      "конфликт": 4304,
      "депутат": 4305,
      "поддержку": 4306,
      "критикова": 4307,
      "учеб": 4308,
      "нач": 4309,
      "потре": 4310,
      "немец": 4311,
      "цере": 4312,
      "армии": 4313,
      "Москву": 4314,
      "результаты": 4315,
      "указал": 4316,
      "бюджета": 4317,
      "боро": 4318,
      "годам": 4319,
      "пенсионе": 4320,
      "оружие": 4321,
      "избира": 4322,
      "ошиб": 4323,
      "нные": 4324,
      "оди": 4325,
      "исполни": 4326,
      "пассажиров": 4327,
      "pp": 4328,
      "Кур": 4329,
      "паци": 4330,
      "пришли": 4331,
      "бело": 4332,
      "ведение": 4333,
      "социальных": 4334,
      "Япо": 4335,
      "боли": 4336,
      "автор": 4337,
      "менты": 4338,
      "ответил": 4339,
      "действие": 4340,
      "штата": 4341,
      "уверен": 4342,
      "сбери": 4343,
      "Зем": 4344,
      "Тре": 4345,
      "одну": 4346,
      "всей": 4347,
      "никаких": 4348,
      "самой": 4349,
      "ционный": 4350,
      "Лука": 4351,
      "редакцию": 4352,
      "Женщина": 4353,
      "Еще": 4354,
      "иде": 4355,
      "космо": 4356,
      "жилье": 4357,
      "лые": 4358,
      "клады": 4359,
      "ситуация": 4360,
      "условиях": 4361,
      "Константино": 4362,
      "рекорд": 4363,
      "400": 4364,
      "поезд": 4365,
      "СССР": 4366,
      "процеду": 4367,
      "катего": 4368,
      "церемо": 4369,
      "лки": 4370,
      "особо": 4371,
      "образования": 4372,
      "зарегистри": 4373,
      "большинство": 4374,
      "департамента": 4375,
      "госпитали": 4376,
      "Кан": 4377,
      "поло": 4378,
      "формы": 4379,
      "трилли": 4380,
      "встрети": 4381,
      "боеви": 4382,
      "убийство": 4383,
      "лами": 4384,
      "цитирует": 4385,
      "одер": 4386,
      "one": 4387,
      "Британ": 4388,
      "Рус": 4389,
      "набра": 4390,
      "начина": 4391,
      "ссив": 4392,
      "исполнитель": 4393,
      "стати": 4394,
      "конструк": 4395,
      "Причи": 4396,
      "позволит": 4397,
      "школь": 4398,
      "барди": 4399,
      "происшествия": 4400,
      "СИЗО": 4401,
      "ow": 4402,
      "ими": 4403,
      "пти": 4404,
      "помина": 4405,
      "силь": 4406,
      "стади": 4407,
      "одоб": 4408,
      "военного": 4409,
      "ющую": 4410,
      "рованных": 4411,
      "шут": 4412,
      "постро": 4413,
      "тельное": 4414,
      "квали": 4415,
      "вынужден": 4416,
      "Амери": 4417,
      "рица": 4418,
      "нера": 4419,
      "2008": 4420,
      "регули": 4421,
      "ne": 4422,
      "бова": 4423,
      "ится": 4424,
      "кун": 4425,
      "разде": 4426,
      "широ": 4427,
      "рань": 4428,
      "Раз": 4429,
      "провели": 4430,
      "ющихся": 4431,
      "домаш": 4432,
      "условия": 4433,
      "хотел": 4434,
      "КС": 4435,
      "нав": 4436,
      "дого": 4437,
      "предложение": 4438,
      "цам": 4439,
      "американские": 4440,
      "оказалась": 4441,
      "Следственного": 4442,
      "Эр": 4443,
      "оно": 4444,
      "оскор": 4445,
      "ущер": 4446,
      "вался": 4447,
      "марта": 4448,
      "суди": 4449,
      "жали": 4450,
      "слан": 4451,
      "вопросы": 4452,
      "футболь": 4453,
      "вшихся": 4454,
      "острова": 4455,
      "норма": 4456,
      "фаль": 4457,
      "тории": 4458,
      "сильно": 4459,
      "отрас": 4460,
      "высказыва": 4461,
      "гами": 4462,
      "золо": 4463,
      "повре": 4464,
      "пожалова": 4465,
      "выступил": 4466,
      "здесь": 4467,
      "эль": 4468,
      "кора": 4469,
      "лян": 4470,
      "лять": 4471,
      "иск": 4472,
      "смарт": 4473,
      "продукции": 4474,
      "практически": 4475,
      "\".": 4476,
      "Сле": 4477,
      "шка": 4478,
      "чески": 4479,
      "гал": 4480,
      "овом": 4481,
      "граф": 4482,
      "план": 4483,
      "самом": 4484,
      "местных": 4485,
      "недвижимости": 4486,
      "Даль": 4487,
      "пли": 4488,
      "спас": 4489,
      "удар": 4490,
      "микро": 4491,
      "циони": 4492,
      "груз": 4493,
      "востоке": 4494,
      "интересова": 4495,
      "злоу": 4496,
      "лка": 4497,
      "общей": 4498,
      "2020": 4499,
      "Сообща": 4500,
      "украинского": 4501,
      "Пари": 4502,
      "Коммер": 4503,
      "Спорт": 4504,
      "положение": 4505,
      "какие": 4506,
      "мокра": 4507,
      "проведения": 4508,
      "худо": 4509,
      "нефте": 4510,
      "обратился": 4511,
      "масштаб": 4512,
      "квадратных": 4513,
      "32": 4514,
      "оном": 4515,
      "вами": 4516,
      "протя": 4517,
      "дыха": 4518,
      "корпора": 4519,
      "щество": 4520,
      "техники": 4521,
      "Сотрудники": 4522,
      "55": 4523,
      "например": 4524,
      "какой": 4525,
      "доче": 4526,
      "консуль": 4527,
      "управление": 4528,
      "составила": 4529,
      "достиг": 4530,
      "прокуро": 4531,
      "хорошо": 4532,
      "Слова": 4533,
      "Хорва": 4534,
      "потра": 4535,
      "дона": 4536,
      "инов": 4537,
      "стью": 4538,
      "Госдумы": 4539,
      "36": 4540,
      "чению": 4541,
      "вызыва": 4542,
      "чай": 4543,
      "подрост": 4544,
      "Мэй": 4545,
      "нный": 4546,
      "хак": 4547,
      "меж": 4548,
      "выход": 4549,
      "туда": 4550,
      "факту": 4551,
      "Путиным": 4552,
      "Донбассе": 4553,
      "потреби": 4554,
      "34": 4555,
      "ился": 4556,
      "мое": 4557,
      "цами": 4558,
      "органы": 4559,
      "государственной": 4560,
      "Совет": 4561,
      "Коммерсан": 4562,
      "Gr": 4563,
      "щую": 4564,
      "воло": 4565,
      "мировой": 4566,
      "Министр": 4567,
      "бренда": 4568,
      "(...": 4569,
      "кот": 4570,
      "израиль": 4571,
      "гибе": 4572,
      "футболиста": 4573,
      "оз": 4574,
      "дит": 4575,
      "село": 4576,
      "пересе": 4577,
      "чета": 4578,
      "кологи": 4579,
      "оказалось": 4580,
      "ведомстве": 4581,
      "регионах": 4582,
      "Компа": 4583,
      "председателя": 4584,
      "турнира": 4585,
      "патриархата": 4586,
      "смотреть": 4587,
      "здания": 4588,
      "украинской": 4589,
      "Позже": 4590,
      "жертв": 4591,
      "Никола": 4592,
      "негатив": 4593,
      "ine": 4594,
      "соглашения": 4595,
      "облада": 4596,
      "38": 4597,
      "ak": 4598,
      "Гар": 4599,
      "ГРУ": 4600,
      "нель": 4601,
      "тила": 4602,
      "серии": 4603,
      "новую": 4604,
      "первую": 4605,
      "Бори": 4606,
      "ill": 4607,
      "появилось": 4608,
      "убийстве": 4609,
      "политики": 4610,
      "закона": 4611,
      "поддержки": 4612,
      "Ге": 4613,
      "кану": 4614,
      "некоторых": 4615,
      "воде": 4616,
      "онлайн": 4617,
      "болез": 4618,
      "остается": 4619,
      "тренер": 4620,
      "Андре": 4621,
      "финанс": 4622,
      "университета": 4623,
      "Жур": 4624,
      "всю": 4625,
      "ясь": 4626,
      "реж": 4627,
      "ряда": 4628,
      "развитие": 4629,
      "Всемир": 4630,
      "произошедшего": 4631,
      "запад": 4632,
      "группировки": 4633,
      "хар": 4634,
      "лец": 4635,
      "тического": 4636,
      "следующий": 4637,
      "внутри": 4638,
      "гвар": 4639,
      "посад": 4640,
      "разных": 4641,
      "корруп": 4642,
      "встрече": 4643,
      "православной": 4644,
      "Подмосковье": 4645,
      "свадь": 4646,
      "КП": 4647,
      "Стра": 4648,
      "Тем": 4649,
      "езда": 4650,
      "эр": 4651,
      "захва": 4652,
      "дером": 4653,
      "экспе": 4654,
      "обраща": 4655,
      "Тай": 4656,
      "фонда": 4657,
      "спустя": 4658,
      "камер": 4659,
      "зировали": 4660,
      "бума": 4661,
      "предложения": 4662,
      "форме": 4663,
      "Мат": 4664,
      "говорили": 4665,
      "принято": 4666,
      "находился": 4667,
      "ash": 4668,
      "постоянно": 4669,
      "снима": 4670,
      "ципа": 4671,
      "государство": 4672,
      "официальном": 4673,
      "Post": 4674,
      "ul": 4675,
      "Зени": 4676,
      "телеведу": 4677,
      "государств": 4678,
      "мнение": 4679,
      "выяснили": 4680,
      "Бывший": 4681,
      "Специали": 4682,
      "стин": 4683,
      "институ": 4684,
      "чены": 4685,
      "центр": 4686,
      "отношений": 4687,
      "Хаби": 4688,
      "Пар": 4689,
      "кса": 4690,
      "оба": 4691,
      "такого": 4692,
      "воспи": 4693,
      "культуры": 4694,
      "пообещал": 4695,
      "моби": 4696,
      "ува": 4697,
      "фона": 4698,
      "посред": 4699,
      "недо": 4700,
      "дала": 4701,
      "сопрово": 4702,
      "простран": 4703,
      "выгля": 4704,
      "весто": 4705,
      "пути": 4706,
      "чено": 4707,
      "Совета": 4708,
      "Петербурге": 4709,
      "Белоруссии": 4710,
      "отреаги": 4711,
      "ляции": 4712,
      "рована": 4713,
      "смотрен": 4714,
      "наруши": 4715,
      "среднем": 4716,
      "запрет": 4717,
      "смерть": 4718,
      "проверки": 4719,
      "школы": 4720,
      "огром": 4721,
      "цвета": 4722,
      "com": 4723,
      "почему": 4724,
      "отрица": 4725,
      "мето": 4726,
      "женных": 4727,
      "Затем": 4728,
      "считали": 4729,
      "расследования": 4730,
      "одежды": 4731,
      "ответственности": 4732,
      "згла": 4733,
      "хран": 4734,
      "границу": 4735,
      "организация": 4736,
      "создать": 4737,
      "участия": 4738,
      "Лиги": 4739,
      "чемпионате": 4740,
      "автомобиля": 4741,
      "Саудовской": 4742,
      "допин": 4743,
      "сторона": 4744,
      "автоке": 4745,
      "уголовного": 4746,
      "Гор": 4747,
      "ид": 4748,
      "наши": 4749,
      "розы": 4750,
      "секун": 4751,
      "пило": 4752,
      "Российская": 4753,
      "определи": 4754,
      "попросил": 4755,
      "минимум": 4756,
      "въ": 4757,
      "сих": 4758,
      "которому": 4759,
      "победу": 4760,
      "съем": 4761,
      "Сте": 4762,
      "щу": 4763,
      "чек": 4764,
      "сток": 4765,
      "своими": 4766,
      "режима": 4767,
      "пассажир": 4768,
      "спут": 4769,
      "Органи": 4770,
      "кле": 4771,
      "проли": 4772,
      "Поль": 4773,
      "оборо": 4774,
      "вернуть": 4775,
      "губернатора": 4776,
      "Издание": 4777,
      "весь": 4778,
      "зирован": 4779,
      "Объ": 4780,
      "смогли": 4781,
      "сторону": 4782,
      "доллара": 4783,
      "последний": 4784,
      "воскре": 4785,
      "радио": 4786,
      "законопроект": 4787,
      "прошлом": 4788,
      "оке": 4789,
      "виду": 4790,
      "ленного": 4791,
      "признали": 4792,
      "подписчи": 4793,
      "боксер": 4794,
      "Times": 4795,
      "АР": 4796,
      "зво": 4797,
      "теа": 4798,
      "проходит": 4799,
      "дила": 4800,
      "Некоторые": 4801,
      "ie": 4802,
      "лишения": 4803,
      "ционные": 4804,
      "боту": 4805,
      "кануне": 4806,
      "плу": 4807,
      "эт": 4808,
      "разре": 4809,
      "новения": 4810,
      "говоря": 4811,
      "Вол": 4812,
      "150": 4813,
      "семье": 4814,
      "попали": 4815,
      "специалисты": 4816,
      "переговоры": 4817,
      "девять": 4818,
      "Дэ": 4819,
      "Джей": 4820,
      "раи": 4821,
      "нули": 4822,
      "мую": 4823,
      "самостоя": 4824,
      "команда": 4825,
      "единения": 4826,
      "Bl": 4827,
      "гря": 4828,
      "рака": 4829,
      "отказыва": 4830,
      "везда": 4831,
      "архи": 4832,
      "хара": 4833,
      "представителя": 4834,
      "вторы": 4835,
      "жных": 4836,
      "зацию": 4837,
      "прошел": 4838,
      "инвесто": 4839,
      "квартире": 4840,
      "ревнова": 4841,
      "подозреваемых": 4842,
      "Американский": 4843,
      "множе": 4844,
      "48": 4845,
      "Аэро": 4846,
      "дя": 4847,
      "посоль": 4848,
      "леку": 4849,
      "сотрудник": 4850,
      "футболу": 4851,
      "ежегод": 4852,
      "\"»,": 4853,
      "РС": 4854,
      "введен": 4855,
      "воох": 4856,
      "валю": 4857,
      "лог": 4858,
      "титу": 4859,
      "чий": 4860,
      "боя": 4861,
      "Сам": 4862,
      "встречу": 4863,
      "позже": 4864,
      "участники": 4865,
      "курс": 4866,
      "сена": 4867,
      "реализации": 4868,
      "кораблей": 4869,
      "пенсионного": 4870,
      "глоб": 4871,
      "вокруг": 4872,
      "вину": 4873,
      "стане": 4874,
      "муни": 4875,
      "соглашение": 4876,
      "появился": 4877,
      "Ши": 4878,
      "лла": 4879,
      "нного": 4880,
      "тое": 4881,
      "тела": 4882,
      "сопер": 4883,
      "прибы": 4884,
      "причаст": 4885,
      "располага": 4886,
      "лень": 4887,
      "вят": 4888,
      "Арм": 4889,
      "официальный": 4890,
      "аэропорту": 4891,
      "Краснодар": 4892,
      "председатель": 4893,
      "Союз": 4894,
      "дочери": 4895,
      "тором": 4896,
      "лиши": 4897,
      "леко": 4898,
      "диаг": 4899,
      "выхода": 4900,
      "стандар": 4901,
      "комиссии": 4902,
      "социальной": 4903,
      "наказание": 4904,
      "47": 4905,
      "ВО": 4906,
      "Мне": 4907,
      "Слу": 4908,
      "нанес": 4909,
      "запла": 4910,
      "рассчиты": 4911,
      "находились": 4912,
      "Израи": 4913,
      "лидеров": 4914,
      "Лукашенко": 4915,
      "Goo": 4916,
      "жений": 4917,
      "йте": 4918,
      "умень": 4919,
      "гать": 4920,
      "комплекс": 4921,
      "пострадали": 4922,
      "конференции": 4923,
      "лке": 4924,
      "оны": 4925,
      "российская": 4926,
      "дове": 4927,
      "повер": 4928,
      "Сочи": 4929,
      "работают": 4930,
      "end": 4931,
      "пожар": 4932,
      "Солсбери": 4933,
      "здравоох": 4934,
      "сфер": 4935,
      "ьян": 4936,
      "наци": 4937,
      "отмен": 4938,
      "будем": 4939,
      "заключил": 4940,
      "пострадавших": 4941,
      "вшиеся": 4942,
      "заметили": 4943,
      "Исто": 4944,
      "Мер": 4945,
      "вру": 4946,
      "зор": 4947,
      "сцена": 4948,
      "вание": 4949,
      "роваться": 4950,
      "регионов": 4951,
      "готовы": 4952,
      "Девуш": 4953,
      "продуктов": 4954,
      "ning": 4955,
      "ton": 4956,
      "Пав": 4957,
      "внес": 4958,
      "ит": 4959,
      "тков": 4960,
      "поля": 4961,
      "руки": 4962,
      "лете": 4963,
      "ющими": 4964,
      "органах": 4965,
      "провозгла": 4966,
      "Послед": 4967,
      "журналистов": 4968,
      "Через": 4969,
      "возраст": 4970,
      "станав": 4971,
      "сравнению": 4972,
      "»),": 4973,
      "вместо": 4974,
      "напи": 4975,
      "продли": 4976,
      "стаби": 4977,
      "такте": 4978,
      "область": 4979,
      "основе": 4980,
      "материалы": 4981,
      "адвокат": 4982,
      "неде": 4983,
      "обстоя": 4984,
      "мия": 4985,
      "избе": 4986,
      "изготов": 4987,
      "пришел": 4988,
      "базы": 4989,
      "бит": 4990,
      "мым": 4991,
      "возму": 4992,
      "имеют": 4993,
      "заявления": 4994,
      "настоящий": 4995,
      "контроль": 4996,
      "Аравии": 4997,
      "39": 4998,
      "япон": 4999,
      "директо": 5000,
      "соцсетях": 5001,
      "мигран": 5002,
      "Пользователи": 5003,
      "енин": 5004,
      "изъ": 5005,
      "дети": 5006,
      "ментов": 5007,
      "сотрудника": 5008,
      "канала": 5009,
      "эксплу": 5010,
      "Теперь": 5011,
      "Украину": 5012,
      "гни": 5013,
      "нений": 5014,
      "увиде": 5015,
      "овали": 5016,
      "крае": 5017,
      "болельщи": 5018,
      "правда": 5019,
      "Кокорин": 5020,
      "относительно": 5021,
      "механиз": 5022,
      "Sun": 5023,
      "клет": 5024,
      "соревнова": 5025,
      "размер": 5026,
      "подроб": 5027,
      "страна": 5028,
      "российском": 5029,
      "смог": 5030,
      "вшийся": 5031,
      "лучше": 5032,
      "раньше": 5033,
      "Mar": 5034,
      "Гре": 5035,
      "хан": 5036,
      "рос": 5037,
      "ролик": 5038,
      "сосед": 5039,
      "исче": 5040,
      "объе": 5041,
      "сообщило": 5042,
      "тренера": 5043,
      "продажу": 5044,
      "крупных": 5045,
      "систему": 5046,
      "товаров": 5047,
      "Первый": 5048,
      "выборах": 5049,
      "фигури": 5050,
      "Австрали": 5051,
      "церковь": 5052,
      "ИК": 5053,
      "зм": 5054,
      "вил": 5055,
      "манев": 5056,
      "бензин": 5057,
      "позволяет": 5058,
      "Журнали": 5059,
      "75": 5060,
      "em": 5061,
      "Ир": 5062,
      "аку": 5063,
      "дении": 5064,
      "чением": 5065,
      "мел": 5066,
      "разру": 5067,
      "лично": 5068,
      "мошенниче": 5069,
      "ci": 5070,
      "Али": 5071,
      "Ян": 5072,
      "озна": 5073,
      "учения": 5074,
      "тива": 5075,
      "осна": 5076,
      "жест": 5077,
      "креп": 5078,
      "наших": 5079,
      "появ": 5080,
      "коль": 5081,
      "катери": 5082,
      "возле": 5083,
      "ницей": 5084,
      "необходимости": 5085,
      "контроли": 5086,
      "артист": 5087,
      "апреля": 5088,
      "воскресен": 5089,
      "ik": 5090,
      "Еди": 5091,
      "сят": 5092,
      "мана": 5093,
      "стаи": 5094,
      "ственное": 5095,
      "фунтов": 5096,
      "Вместе": 5097,
      "вспо": 5098,
      "вещества": 5099,
      "тельная": 5100,
      "форвар": 5101,
      "стрель": 5102,
      "изданию": 5103,
      "источника": 5104,
      "Коммерсант": 5105,
      "УПЦ": 5106,
      "опровер": 5107,
      "кара": 5108,
      "Воору": 5109,
      "нарушение": 5110,
      "водитель": 5111,
      "врачи": 5112,
      "Павел": 5113,
      "программе": 5114,
      "полицейских": 5115,
      "ученые": 5116,
      "Михаил": 5117,
      "поводу": 5118,
      "соз": 5119,
      "сына": 5120,
      "домов": 5121,
      "Соответ": 5122,
      "ell": 5123,
      "участием": 5124,
      "соответственно": 5125,
      "собирается": 5126,
      "субботу": 5127,
      "Киеве": 5128,
      "An": 5129,
      "um": 5130,
      "жением": 5131,
      "рождения": 5132,
      "лок": 5133,
      "дина": 5134,
      "честь": 5135,
      "препара": 5136,
      "щиков": 5137,
      "граду": 5138,
      "целом": 5139,
      "сове": 5140,
      "форму": 5141,
      "ork": 5142,
      "дважды": 5143,
      "вопросам": 5144,
      "нападения": 5145,
      "Джо": 5146,
      "активно": 5147,
      "полицейские": 5148,
      "инфраструктуры": 5149,
      "ТВ": 5150,
      "Фон": 5151,
      "отдела": 5152,
      "раскритикова": 5153,
      "ставку": 5154,
      "самолетов": 5155,
      "территориаль": 5156,
      "Константинополь": 5157,
      "ВМС": 5158,
      "ИН": 5159,
      "ого": 5160,
      "стрии": 5161,
      "стям": 5162,
      "тая": 5163,
      "отра": 5164,
      "прием": 5165,
      "Более": 5166,
      "ющем": 5167,
      "автобу": 5168,
      "едини": 5169,
      "предприятия": 5170,
      "железно": 5171,
      "фей": 5172,
      "поступа": 5173,
      "лили": 5174,
      "сия": 5175,
      "прожи": 5176,
      "придется": 5177,
      "преж": 5178,
      "тым": 5179,
      "фикации": 5180,
      "российскую": 5181,
      "создание": 5182,
      "живания": 5183,
      "СКА": 5184,
      "неделю": 5185,
      "сказать": 5186,
      "больницы": 5187,
      "больнице": 5188,
      "финала": 5189,
      "показатель": 5190,
      "марки": 5191,
      "Европе": 5192,
      "нефтя": 5193,
      "процесс": 5194,
      "абсолют": 5195,
      "Le": 5196,
      "gle": 5197,
      "гова": 5198,
      "раст": 5199,
      "выпуска": 5200,
      "2010": 5201,
      "смотре": 5202,
      "повышение": 5203,
      "подписал": 5204,
      "конкурса": 5205,
      "устройства": 5206,
      "42": 5207,
      "Ива": 5208,
      "пры": 5209,
      "флота": 5210,
      "кали": 5211,
      "тина": 5212,
      "могу": 5213,
      "тельную": 5214,
      "экспорт": 5215,
      "серд": 5216,
      "кабин": 5217,
      "Хар": 5218,
      "Шта": 5219,
      "вдо": 5220,
      "жет": 5221,
      "пору": 5222,
      "доставили": 5223,
      "сезона": 5224,
      "ковых": 5225,
      "перевоз": 5226,
      "правил": 5227,
      "Англи": 5228,
      "двумя": 5229,
      "пользователь": 5230,
      "десять": 5231,
      "подтвердил": 5232,
      "отец": 5233,
      "машину": 5234,
      "отде": 5235,
      "прие": 5236,
      "базе": 5237,
      "цели": 5238,
      "украинские": 5239,
      "пытался": 5240,
      "позицию": 5241,
      "аэропорта": 5242,
      "столице": 5243,
      "услуг": 5244,
      "Керченском": 5245,
      "App": 5246,
      "Вар": 5247,
      "СА": 5248,
      "посет": 5249,
      "вещи": 5250,
      "пиона": 5251,
      "подмосков": 5252,
      "Ингу": 5253,
      "чемпионов": 5254,
      "называют": 5255,
      "поведение": 5256,
      "специалистов": 5257,
      "корот": 5258,
      "ученых": 5259,
      "Вен": 5260,
      "ЦБ": 5261,
      "нется": 5262,
      "сверх": 5263,
      "домой": 5264,
      "Соединен": 5265,
      "средней": 5266,
      "бойцов": 5267,
      "официально": 5268,
      "эксперт": 5269,
      "массов": 5270,
      "прокуратуры": 5271,
      "od": 5272,
      "Ил": 5273,
      "жению": 5274,
      "ьют": 5275,
      "миров": 5276,
      "мод": 5277,
      "могла": 5278,
      "предмет": 5279,
      "ленно": 5280,
      "Боши": 5281,
      "различных": 5282,
      "килограммов": 5283,
      "регулярно": 5284,
      "самостоятельно": 5285,
      "Юрий": 5286,
      "нси": 5287,
      "поро": 5288,
      "реза": 5289,
      "ственная": 5290,
      "подозре": 5291,
      "заметил": 5292,
      "документов": 5293,
      "ответственность": 5294,
      "Медведев": 5295,
      "второго": 5296,
      "Причиной": 5297,
      "ran": 5298,
      "посту": 5299,
      "каль": 5300,
      "нести": 5301,
      "недели": 5302,
      "сит": 5303,
      "прошли": 5304,
      "мата": 5305,
      "первое": 5306,
      "другими": 5307,
      "столицы": 5308,
      "совершил": 5309,
      "Пра": 5310,
      "плате": 5311,
      "программу": 5312,
      "намерен": 5313,
      "актриса": 5314,
      "экспери": 5315,
      "the": 5316,
      "ВКон": 5317,
      "Госу": 5318,
      "Побе": 5319,
      "прошла": 5320,
      "рынок": 5321,
      "подъ": 5322,
      "странами": 5323,
      "сеть": 5324,
      "строить": 5325,
      "проблема": 5326,
      "фильма": 5327,
      "Карда": 5328,
      "фигуран": 5329,
      "восьми": 5330,
      "Коммерсантъ": 5331,
      "вент": 5332,
      "тим": 5333,
      "выбра": 5334,
      "акций": 5335,
      "ers": 5336,
      "должность": 5337,
      "решила": 5338,
      "отказались": 5339,
      "занимает": 5340,
      "международных": 5341,
      "производство": 5342,
      "переговоров": 5343,
      "ВКонтакте": 5344,
      "Южной": 5345,
      "уз": 5346,
      "рила": 5347,
      "модер": 5348,
      "ческим": 5349,
      "ключе": 5350,
      "вшему": 5351,
      "точки": 5352,
      "ствовала": 5353,
      "фотографию": 5354,
      "хотят": 5355,
      "Компания": 5356,
      "Специалисты": 5357,
      "здравоохранения": 5358,
      "Соответству": 5359,
      "Екатери": 5360,
      "днев": 5361,
      "проигра": 5362,
      "преды": 5363,
      "меть": 5364,
      "испан": 5365,
      "россияне": 5366,
      "катастро": 5367,
      "различные": 5368,
      "учреждения": 5369,
      "собеседник": 5370,
      "обязанности": 5371,
      "Донецкой": 5372,
      "отрасли": 5373,
      "глобаль": 5374,
      "Google": 5375,
      "воскресенье": 5376,
      "Государ": 5377,
      "Сен": 5378,
      "члены": 5379,
      "нож": 5380,
      "каких": 5381,
      "воро": 5382,
      "высказа": 5383,
      "живу": 5384,
      "значительно": 5385,
      "ФСИН": 5386,
      "бомбарди": 5387,
      "особенно": 5388,
      "генеральный": 5389,
      "op": 5390,
      "вно": 5391,
      "описа": 5392,
      "уси": 5393,
      "запро": 5394,
      "вообще": 5395,
      "метро": 5396,
      "считается": 5397,
      "ракета": 5398,
      "первых": 5399,
      "женщину": 5400,
      "будущем": 5401,
      "выяснилось": 5402,
      "пунк": 5403,
      "борьбе": 5404,
      "av": 5405,
      "ГУ": 5406,
      "Пен": 5407,
      "корей": 5408,
      "выйти": 5409,
      "происходит": 5410,
      "руководство": 5411,
      "Представители": 5412,
      "46": 5413,
      "As": 5414,
      "Ай": 5415,
      "лес": 5416,
      "чаще": 5417,
      "судов": 5418,
      "рового": 5419,
      "провоци": 5420,
      "заключения": 5421,
      "развитию": 5422,
      "морских": 5423,
      "ограничения": 5424,
      "субъ": 5425,
      "интернете": 5426,
      "заседании": 5427,
      "модерни": 5428,
      "Ювент": 5429,
      "тная": 5430,
      "рачи": 5431,
      "поток": 5432,
      "контак": 5433,
      "труда": 5434,
      "Захар": 5435,
      "лым": 5436,
      "штате": 5437,
      "очевид": 5438,
      "обеспечи": 5439,
      "совместно": 5440,
      "имущества": 5441,
      "Эксперты": 5442,
      "Ос": 5443,
      "Олег": 5444,
      "метал": 5445,
      "нарушении": 5446,
      "Публи": 5447,
      "шьян": 5448,
      "причин": 5449,
      "футболист": 5450,
      "упал": 5451,
      "напомнил": 5452,
      "Ак": 5453,
      "несли": 5454,
      "водо": 5455,
      "прото": 5456,
      "доброво": 5457,
      "вшую": 5458,
      "услов": 5459,
      "ждений": 5460,
      "показыва": 5461,
      "учени": 5462,
      "ехали": 5463,
      "туристов": 5464,
      "Евгений": 5465,
      "триллиона": 5466,
      "Юж": 5467,
      "тным": 5468,
      "ческое": 5469,
      "подчерки": 5470,
      "аналитики": 5471,
      "голосования": 5472,
      "грозит": 5473,
      "Кардашьян": 5474,
      "MA": 5475,
      "ОП": 5476,
      "зрения": 5477,
      "мани": 5478,
      "Этот": 5479,
      "судь": 5480,
      "ведении": 5481,
      "продажи": 5482,
      "подобные": 5483,
      "контракт": 5484,
      "борьбы": 5485,
      "Кремля": 5486,
      "(...)": 5487,
      "ЦСКА": 5488,
      "посте": 5489,
      "положения": 5490,
      "магаз": 5491,
      "применя": 5492,
      "Пол": 5493,
      "няется": 5494,
      "ссию": 5495,
      "равно": 5496,
      "Европей": 5497,
      "Пере": 5498,
      "частью": 5499,
      "ограничи": 5500,
      "технологий": 5501,
      "Чи": 5502,
      "уг": 5503,
      "кафе": 5504,
      "договори": 5505,
      "крыла": 5506,
      "ссер": 5507,
      "помочь": 5508,
      "организаций": 5509,
      "oup": 5510,
      "морского": 5511,
      "угрозы": 5512,
      "видеть": 5513,
      "экономического": 5514,
      "временно": 5515,
      "привлека": 5516,
      "юриди": 5517,
      "столкну": 5518,
      "Грузии": 5519,
      "тельности": 5520,
      "конкре": 5521,
      "Мака": 5522,
      "Запад": 5523,
      "городской": 5524,
      "свобо": 5525,
      "предусматри": 5526,
      "предыду": 5527,
      "56": 5528,
      "проголосова": 5529,
      "малень": 5530,
      "Роско": 5531,
      "самый": 5532,
      "удовлет": 5533,
      "Большо": 5534,
      "острове": 5535,
      "злоумышлен": 5536,
      "гибели": 5537,
      "муниципа": 5538,
      "41": 5539,
      "Исла": 5540,
      "Ленин": 5541,
      "ауди": 5542,
      "поедин": 5543,
      "замен": 5544,
      "вот": 5545,
      "инстру": 5546,
      "нула": 5547,
      "городов": 5548,
      "государственного": 5549,
      "главного": 5550,
      "купить": 5551,
      "Полиция": 5552,
      "Представитель": 5553,
      "Роскосмо": 5554,
      "АО": 5555,
      "Ему": 5556,
      "Многи": 5557,
      "фы": 5558,
      "щению": 5559,
      "лии": 5560,
      "рослав": 5561,
      "прибли": 5562,
      "сезоне": 5563,
      "превра": 5564,
      "нуж": 5565,
      "туаль": 5566,
      "ina": 5567,
      "передачи": 5568,
      "корпу": 5569,
      "создания": 5570,
      "Петров": 5571,
      "газеты": 5572,
      "боец": 5573,
      "появились": 5574,
      "утверждают": 5575,
      "друзья": 5576,
      "44": 5577,
      "отчет": 5578,
      "ческая": 5579,
      "циями": 5580,
      "пенса": 5581,
      "фана": 5582,
      "Куд": 5583,
      "Владимиром": 5584,
      "людям": 5585,
      "Хорватии": 5586,
      "проливе": 5587,
      "исчез": 5588,
      "Чу": 5589,
      "несовершенно": 5590,
      "вич": 5591,
      "кут": 5592,
      "столько": 5593,
      "фир": 5594,
      "фика": 5595,
      "студент": 5596,
      "планет": 5597,
      "ствием": 5598,
      "Такое": 5599,
      "езде": 5600,
      "our": 5601,
      "московского": 5602,
      "условий": 5603,
      "Испании": 5604,
      "железнодорож": 5605,
      "Итали": 5606,
      "Рей": 5607,
      "хав": 5608,
      "наме": 5609,
      "посла": 5610,
      "гала": 5611,
      "жалова": 5612,
      "казалось": 5613,
      "объясня": 5614,
      "Алексе": 5615,
      "стоимости": 5616,
      "задержаны": 5617,
      "внутренних": 5618,
      "разведки": 5619,
      "палаты": 5620,
      "вечером": 5621,
      "ссоциации": 5622,
      "нельзя": 5623,
      "Ингушет": 5624,
      "Эн": 5625,
      "твор": 5626,
      "выбор": 5627,
      "компенса": 5628,
      "Кирил": 5629,
      "тической": 5630,
      "президенту": 5631,
      "порно": 5632,
      "сутки": 5633,
      "ехала": 5634,
      "прямо": 5635,
      "предложили": 5636,
      "анонси": 5637,
      "возглавля": 5638,
      "Ингушети": 5639,
      "Фа": 5640,
      "эко": 5641,
      "Мари": 5642,
      "Военно": 5643,
      "ехать": 5644,
      "выступает": 5645,
      "королев": 5646,
      "ob": 5647,
      "Уэ": 5648,
      "костю": 5649,
      "горе": 5650,
      "лежа": 5651,
      "минима": 5652,
      "рази": 5653,
      "тую": 5654,
      "правед": 5655,
      "коммер": 5656,
      "показали": 5657,
      "религи": 5658,
      "атаки": 5659,
      "рейтинг": 5660,
      "крупнейших": 5661,
      "шру": 5662,
      "стных": 5663,
      "заслу": 5664,
      "льго": 5665,
      "кибер": 5666,
      "мию": 5667,
      "проанали": 5668,
      "стами": 5669,
      "новь": 5670,
      "шев": 5671,
      "победы": 5672,
      "голосов": 5673,
      "соответствии": 5674,
      "Маркл": 5675,
      "ирланд": 5676,
      "Бра": 5677,
      "ВП": 5678,
      "бка": 5679,
      "жени": 5680,
      "иметь": 5681,
      "наш": 5682,
      "запусти": 5683,
      "доход": 5684,
      "мати": 5685,
      "отдел": 5686,
      "гового": 5687,
      "служб": 5688,
      "название": 5689,
      "исследовании": 5690,
      "начальник": 5691,
      "свидетельствуют": 5692,
      "сделки": 5693,
      "генерал": 5694,
      "гвардии": 5695,
      "характер": 5696,
      "настаи": 5697,
      "ниже": 5698,
      "заме": 5699,
      "льная": 5700,
      "достав": 5701,
      "отправ": 5702,
      "весе": 5703,
      "бога": 5704,
      "щик": 5705,
      "централь": 5706,
      "другу": 5707,
      "Коро": 5708,
      "Коми": 5709,
      "призналась": 5710,
      "сообщение": 5711,
      "письмо": 5712,
      "смешан": 5713,
      "психо": 5714,
      "Син": 5715,
      "ужа": 5716,
      "чью": 5717,
      "недоста": 5718,
      "ваку": 5719,
      "декс": 5720,
      "дий": 5721,
      "паса": 5722,
      "разы": 5723,
      "мый": 5724,
      "австрали": 5725,
      "службу": 5726,
      "oom": 5727,
      "размести": 5728,
      "деятельность": 5729,
      "руководителя": 5730,
      "принци": 5731,
      "Северной": 5732,
      "крайне": 5733,
      "Phone": 5734,
      "Золо": 5735,
      "поис": 5736,
      "линии": 5737,
      "вас": 5738,
      "выводу": 5739,
      "Полу": 5740,
      "номер": 5741,
      "Петро": 5742,
      "Украинской": 5743,
      "журналистам": 5744,
      "начальника": 5745,
      "просьбой": 5746,
      "протяжении": 5747,
      "ВВС": 5748,
      "Фут": 5749,
      "бран": 5750,
      "рва": 5751,
      "обслу": 5752,
      "хом": 5753,
      "Поэтому": 5754,
      "хам": 5755,
      "повлия": 5756,
      "границе": 5757,
      "установить": 5758,
      "блогер": 5759,
      "многих": 5760,
      "ближайшие": 5761,
      "Подмосковья": 5762,
      "Мамаев": 5763,
      "худож": 5764,
      "Group": 5765,
      "вновь": 5766,
      "рец": 5767,
      "заинтересова": 5768,
      "тельном": 5769,
      "люб": 5770,
      "войска": 5771,
      "Киева": 5772,
      "групп": 5773,
      "группе": 5774,
      "факт": 5775,
      "валют": 5776,
      "сумма": 5777,
      "футболистов": 5778,
      "опрошенных": 5779,
      "iPhone": 5780,
      "эп": 5781,
      "отдыха": 5782,
      "хочу": 5783,
      "Кана": 5784,
      "обнаружен": 5785,
      "главный": 5786,
      "третьем": 5787,
      "руководством": 5788,
      "Краснояр": 5789,
      "связано": 5790,
      "тюрьмы": 5791,
      "CN": 5792,
      "Гово": 5793,
      "млад": 5794,
      "экра": 5795,
      "демокра": 5796,
      "момента": 5797,
      "мари": 5798,
      "супер": 5799,
      "странах": 5800,
      "ябрь": 5801,
      "лыша": 5802,
      "военный": 5803,
      "Макси": 5804,
      "эксперти": 5805,
      "поверх": 5806,
      "эксплуата": 5807,
      "цо": 5808,
      "призыва": 5809,
      "гаран": 5810,
      "историю": 5811,
      "проводить": 5812,
      "документе": 5813,
      "британского": 5814,
      "обеспечить": 5815,
      "молодых": 5816,
      "Многие": 5817,
      "Sk": 5818,
      "фла": 5819,
      "кисло": 5820,
      "ческую": 5821,
      "выс": 5822,
      "мяг": 5823,
      "ведь": 5824,
      "исключи": 5825,
      "ввести": 5826,
      "нау": 5827,
      "пото": 5828,
      "тиру": 5829,
      "бед": 5830,
      "беремен": 5831,
      "жан": 5832,
      "практи": 5833,
      "везли": 5834,
      "распоряжении": 5835,
      "ue": 5836,
      "Роб": 5837,
      "рение": 5838,
      "устанав": 5839,
      "чники": 5840,
      "полета": 5841,
      "вере": 5842,
      "спекти": 5843,
      "американском": 5844,
      "первым": 5845,
      "маршру": 5846,
      "проверку": 5847,
      "пострадал": 5848,
      "земли": 5849,
      "Министерство": 5850,
      "Японии": 5851,
      "Сред": 5852,
      "лл": 5853,
      "вынес": 5854,
      "вышла": 5855,
      "всему": 5856,
      "Несмотря": 5857,
      "международного": 5858,
      "Петербурга": 5859,
      "министерства": 5860,
      "Девушка": 5861,
      "43": 5862,
      "ПВО": 5863,
      "СБ": 5864,
      "моста": 5865,
      "доля": 5866,
      "северо": 5867,
      "шить": 5868,
      "миллион": 5869,
      "действовать": 5870,
      "провока": 5871,
      "назвала": 5872,
      "кримина": 5873,
      "самые": 5874,
      "заболева": 5875,
      "поделился": 5876,
      "конечно": 5877,
      "военнослужащих": 5878,
      "Смо": 5879,
      "Ху": 5880,
      "твра": 5881,
      "экологи": 5882,
      "заблоки": 5883,
      "лекар": 5884,
      "дере": 5885,
      "чих": 5886,
      "расстоя": 5887,
      "сын": 5888,
      "Коно": 5889,
      "Кады": 5890,
      "регистра": 5891,
      "щены": 5892,
      "произошла": 5893,
      "погибших": 5894,
      "услуги": 5895,
      "ec": 5896,
      "Гра": 5897,
      "Офи": 5898,
      "фу": 5899,
      "напря": 5900,
      "горя": 5901,
      "тит": 5902,
      "оты": 5903,
      "пресе": 5904,
      "чин": 5905,
      "числа": 5906,
      "беспи": 5907,
      "шенной": 5908,
      "самопровозгла": 5909,
      "опубликована": 5910,
      "щихся": 5911,
      "ближайшее": 5912,
      "Чтобы": 5913,
      "осуществля": 5914,
      "приходится": 5915,
      "Оказалось": 5916,
      "атак": 5917,
      "далеко": 5918,
      "причастности": 5919,
      "борт": 5920,
      "Меган": 5921,
      "городах": 5922,
      "закончи": 5923,
      "исполня": 5924,
      "предотвра": 5925,
      "Московского": 5926,
      "оппози": 5927,
      "Захарченко": 5928,
      "Основ": 5929,
      "Публикация": 5930,
      "63": 5931,
      "Бал": 5932,
      "РПЦ": 5933,
      "йский": 5934,
      "кей": 5935,
      "целях": 5936,
      "мерт": 5937,
      "самого": 5938,
      "Второй": 5939,
      "Gu": 5940,
      "Встре": 5941,
      "кадра": 5942,
      "ману": 5943,
      "прежде": 5944,
      "бель": 5945,
      "мета": 5946,
      "следствие": 5947,
      "отказаться": 5948,
      "Крыму": 5949,
      "подтвердили": 5950,
      "существова": 5951,
      "berg": 5952,
      "комментариях": 5953,
      "per": 5954,
      "ковой": 5955,
      "усили": 5956,
      "чений": 5957,
      "члена": 5958,
      "лиги": 5959,
      "затра": 5960,
      "продемонстри": 5961,
      "подру": 5962,
      "бесе": 5963,
      "явили": 5964,
      "ственном": 5965,
      "известен": 5966,
      "Виктор": 5967,
      "Предполага": 5968,
      "Петербург": 5969,
      "лимпиа": 5970,
      "сериа": 5971,
      "коммуна": 5972,
      "связь": 5973,
      "заверил": 5974,
      "Израиля": 5975,
      "Хель": 5976,
      "платье": 5977,
      "ставка": 5978,
      "Бол": 5979,
      "последствии": 5980,
      "программа": 5981,
      "составит": 5982,
      "броси": 5983,
      "парламент": 5984,
      "поступившем": 5985,
      "попытался": 5986,
      "az": 5987,
      "Гене": 5988,
      "КНД": 5989,
      "Спу": 5990,
      "входит": 5991,
      "мэ": 5992,
      "флот": 5993,
      "чрез": 5994,
      "полож": 5995,
      "лидером": 5996,
      "вела": 5997,
      "Пор": 5998,
      "названием": 5999,
      "Израиль": 6000,
      "основном": 6001,
      "предусмотрен": 6002,
      "1990": 6003,
      "культур": 6004,
      "порядке": 6005,
      "симво": 6006,
      "вероятно": 6007,
      "КНДР": 6008,
      "Гри": 6009,
      "СП": 6010,
      "чными": 6011,
      "лил": 6012,
      "кина": 6013,
      "пес": 6014,
      "войск": 6015,
      "кризи": 6016,
      "приняла": 6017,
      "радиостан": 6018,
      "другом": 6019,
      "вооружения": 6020,
      "занял": 6021,
      "партнер": 6022,
      "аварии": 6023,
      "форума": 6024,
      "Андрея": 6025,
      "49": 6026,
      "ив": 6027,
      "фали": 6028,
      "раг": 6029,
      "реп": 6030,
      "закуп": 6031,
      "льном": 6032,
      "типа": 6033,
      "мол": 6034,
      "жеб": 6035,
      "новремен": 6036,
      "Индии": 6037,
      "здоровья": 6038,
      "карьеру": 6039,
      "Барсело": 6040,
      "отвеча": 6041,
      "Тер": 6042,
      "чке": 6043,
      "посовет": 6044,
      "ниж": 6045,
      "выигры": 6046,
      "2000": 6047,
      "местные": 6048,
      "2009": 6049,
      "законе": 6050,
      "реализова": 6051,
      "Денис": 6052,
      "оскорб": 6053,
      "Уни": 6054,
      "Уиль": 6055,
      "гент": 6056,
      "олимпий": 6057,
      "домога": 6058,
      "пакет": 6059,
      "выложи": 6060,
      "ину": 6061,
      "расходы": 6062,
      "согласова": 6063,
      "экспертов": 6064,
      "повышения": 6065,
      "существу": 6066,
      "заключенных": 6067,
      "детьми": 6068,
      "потенциаль": 6069,
      "Гарри": 6070,
      "Генераль": 6071,
      "Уильям": 6072,
      "тник": 6073,
      "обру": 6074,
      "дерев": 6075,
      "выпи": 6076,
      "споко": 6077,
      "служеб": 6078,
      "регион": 6079,
      "агентству": 6080,
      "обратилась": 6081,
      "ребенок": 6082,
      "думаю": 6083,
      "требует": 6084,
      "религиоз": 6085,
      "Ex": 6086,
      "York": 6087,
      "Бла": 6088,
      "Им": 6089,
      "Эти": 6090,
      "летних": 6091,
      "большая": 6092,
      "движение": 6093,
      "проекты": 6094,
      "заявлении": 6095,
      "отказалась": 6096,
      "выступал": 6097,
      "округа": 6098,
      "договора": 6099,
      "Анато": 6100,
      "Исследователи": 6101,
      "дат": 6102,
      "ведет": 6103,
      "акцию": 6104,
      "перспекти": 6105,
      "большую": 6106,
      "компанией": 6107,
      "зой": 6108,
      "ждению": 6109,
      "жизнен": 6110,
      "подалеку": 6111,
      "предоставить": 6112,
      "портала": 6113,
      "поставки": 6114,
      "обвиняют": 6115,
      "театра": 6116,
      "Италии": 6117,
      "Bo": 6118,
      "Хан": 6119,
      "вшее": 6120,
      "валась": 6121,
      "прибыли": 6122,
      "чается": 6123,
      "предназначен": 6124,
      "взгля": 6125,
      "Вале": 6126,
      "использования": 6127,
      "энерго": 6128,
      "системе": 6129,
      "AD": 6130,
      "ТП": 6131,
      "ану": 6132,
      "гры": 6133,
      "стиля": 6134,
      "цева": 6135,
      "испы": 6136,
      "следование": 6137,
      "украинский": 6138,
      "Моло": 6139,
      "Теле": 6140,
      "международной": 6141,
      "мероприятий": 6142,
      "противостоя": 6143,
      "столк": 6144,
      "удовлетво": 6145,
      "Чем": 6146,
      "забра": 6147,
      "лоте": 6148,
      "мут": 6149,
      "конку": 6150,
      "правила": 6151,
      "отношение": 6152,
      "обвинение": 6153,
      "водителя": 6154,
      "создании": 6155,
      "спортсмена": 6156,
      "барре": 6157,
      "Нурмагомедова": 6158,
      "покинуть": 6159,
      "сложности": 6160,
      "диплома": 6161,
      "og": 6162,
      "Ну": 6163,
      "Сего": 6164,
      "чила": 6165,
      "получения": 6166,
      "известный": 6167,
      "сделали": 6168,
      "планируют": 6169,
      "подозр": 6170,
      "жилищ": 6171,
      "автомобилей": 6172,
      "кажется": 6173,
      "Следственный": 6174,
      "Макгрегор": 6175,
      "уточняется": 6176,
      "церемонии": 6177,
      "Сегодня": 6178,
      "эм": 6179,
      "нара": 6180,
      "лить": 6181,
      "неподалеку": 6182,
      "тика": 6183,
      "руя": 6184,
      "дитель": 6185,
      "старт": 6186,
      "чики": 6187,
      "газо": 6188,
      "знамени": 6189,
      "Сара": 6190,
      "врача": 6191,
      "пятого": 6192,
      "обеспечения": 6193,
      "твори": 6194,
      "лку": 6195,
      "полет": 6196,
      "позна": 6197,
      "покры": 6198,
      "рода": 6199,
      "прошед": 6200,
      "баров": 6201,
      "трое": 6202,
      "Евросоюза": 6203,
      "принимать": 6204,
      "существует": 6205,
      "направления": 6206,
      "рекомендова": 6207,
      "белорус": 6208,
      "Встреча": 6209,
      "Олимпий": 6210,
      "хен": 6211,
      "реб": 6212,
      "канец": 6213,
      "воспо": 6214,
      "лева": 6215,
      "тием": 6216,
      "стам": 6217,
      "приостанов": 6218,
      "сел": 6219,
      "вец": 6220,
      "хок": 6221,
      "кель": 6222,
      "метрах": 6223,
      "щенко": 6224,
      "должности": 6225,
      "общества": 6226,
      "фонд": 6227,
      "поражения": 6228,
      "минуте": 6229,
      "Северный": 6230,
      "Медведева": 6231,
      "Скрипаля": 6232,
      "Азовском": 6233,
      "характери": 6234,
      "Ислам": 6235,
      "Хельсин": 6236,
      "52": 6237,
      "све": 6238,
      "тви": 6239,
      "щему": 6240,
      "ровании": 6241,
      "любой": 6242,
      "мяч": 6243,
      "ence": 6244,
      "побереж": 6245,
      "Доку": 6246,
      "многочис": 6247,
      "съе": 6248,
      "Ольга": 6249,
      "множество": 6250,
      "ВВП": 6251,
      "оформ": 6252,
      "уступи": 6253,
      "награ": 6254,
      "завое": 6255,
      "моде": 6256,
      "пришла": 6257,
      "галь": 6258,
      "ряде": 6259,
      "связыва": 6260,
      "сотрудниками": 6261,
      "стороне": 6262,
      "финале": 6263,
      "показал": 6264,
      "зербай": 6265,
      "избили": 6266,
      "подобных": 6267,
      "увеличить": 6268,
      "россиянин": 6269,
      "дрид": 6270,
      "корабли": 6271,
      "oomberg": 6272,
      "зербайджа": 6273,
      "Tes": 6274,
      "Три": 6275,
      "Чен": 6276,
      "вся": 6277,
      "жки": 6278,
      "швили": 6279,
      "стры": 6280,
      "выми": 6281,
      "пев": 6282,
      "емся": 6283,
      "страи": 6284,
      "знаю": 6285,
      "Рас": 6286,
      "военное": 6287,
      "темпера": 6288,
      "резко": 6289,
      "Решение": 6290,
      "Депута": 6291,
      "качества": 6292,
      "этапа": 6293,
      "местах": 6294,
      "турнире": 6295,
      "поклон": 6296,
      "Чечни": 6297,
      "Bloomberg": 6298,
      "ИГ": 6299,
      "трас": 6300,
      "эваку": 6301,
      "поса": 6302,
      "общего": 6303,
      "лона": 6304,
      "санти": 6305,
      "получит": 6306,
      "чемпионом": 6307,
      "другого": 6308,
      "депутатов": 6309,
      "технологии": 6310,
      "Республики": 6311,
      "сотни": 6312,
      "Спустя": 6313,
      "if": 6314,
      "Кей": 6315,
      "Род": 6316,
      "сл": 6317,
      "ссов": 6318,
      "копи": 6319,
      "лабора": 6320,
      "вии": 6321,
      "сег": 6322,
      "шими": 6323,
      "новым": 6324,
      "Обще": 6325,
      "вред": 6326,
      "другим": 6327,
      "показания": 6328,
      "травмы": 6329,
      "скорее": 6330,
      "ational": 6331,
      "Армении": 6332,
      "Tesla": 6333,
      "Фло": 6334,
      "кожи": 6335,
      "тации": 6336,
      "ляет": 6337,
      "жесто": 6338,
      "овое": 6339,
      "муль": 6340,
      "сетей": 6341,
      "делец": 6342,
      "объявили": 6343,
      "продукты": 6344,
      "вшейся": 6345,
      "77": 6346,
      "Оба": 6347,
      "красно": 6348,
      "рд": 6349,
      "заказ": 6350,
      "отца": 6351,
      "лябин": 6352,
      "премии": 6353,
      "гина": 6354,
      "главе": 6355,
      "последова": 6356,
      "российскими": 6357,
      "ствий": 6358,
      "жилых": 6359,
      "смея": 6360,
      "насилия": 6361,
      "аварий": 6362,
      "РСМ": 6363,
      "De": 6364,
      "Su": 6365,
      "Дан": 6366,
      "Новой": 6367,
      "ухуд": 6368,
      "овых": 6369,
      "обмен": 6370,
      "сомо": 6371,
      "рыв": 6372,
      "емым": 6373,
      "тыми": 6374,
      "стражу": 6375,
      "цах": 6376,
      "правозащит": 6377,
      "последнее": 6378,
      "матч": 6379,
      "Дмитрия": 6380,
      "туристиче": 6381,
      "Лондон": 6382,
      "агрессив": 6383,
      "петербур": 6384,
      "недвижимость": 6385,
      "окончания": 6386,
      "Sh": 6387,
      "дзе": 6388,
      "замеча": 6389,
      "такая": 6390,
      "повто": 6391,
      "смогла": 6392,
      "Ростов": 6393,
      "Куз": 6394,
      "молодой": 6395,
      "Гай": 6396,
      "вернуться": 6397,
      "делега": 6398,
      "площади": 6399,
      "лицо": 6400,
      "Житель": 6401,
      "договор": 6402,
      "сегодняш": 6403,
      "виновным": 6404,
      "автокефали": 6405,
      "112": 6406,
      "Mir": 6407,
      "Бен": 6408,
      "кроме": 6409,
      "сначала": 6410,
      "дефици": 6411,
      "паль": 6412,
      "привести": 6413,
      "буд": 6414,
      "био": 6415,
      "которыми": 6416,
      "чена": 6417,
      "Мария": 6418,
      "Казах": 6419,
      "ждать": 6420,
      "ганской": 6421,
      "решить": 6422,
      "заняла": 6423,
      "материалах": 6424,
      "правам": 6425,
      "взрыва": 6426,
      "истребителей": 6427,
      "поддержали": 6428,
      "Евгения": 6429,
      "вооруженных": 6430,
      "Верховной": 6431,
      "певица": 6432,
      "экипажа": 6433,
      "беспилот": 6434,
      "PD": 6435,
      "ck": 6436,
      "Це": 6437,
      "ай": 6438,
      "гром": 6439,
      "двер": 6440,
      "йском": 6441,
      "коле": 6442,
      "забил": 6443,
      "запечат": 6444,
      "онали": 6445,
      "работан": 6446,
      "тических": 6447,
      "чуть": 6448,
      "голову": 6449,
      "судна": 6450,
      "джер": 6451,
      "Догово": 6452,
      "компьют": 6453,
      "использование": 6454,
      "каждого": 6455,
      "press": 6456,
      "Мек": 6457,
      "Олимпиа": 6458,
      "РК": 6459,
      "смы": 6460,
      "юзер": 6461,
      "напомина": 6462,
      "гают": 6463,
      "страх": 6464,
      "правки": 6465,
      "попала": 6466,
      "Даге": 6467,
      "зависимости": 6468,
      "арестовали": 6469,
      "представляет": 6470,
      "Фор": 6471,
      "жного": 6472,
      "цом": 6473,
      "невозможно": 6474,
      "мони": 6475,
      "гия": 6476,
      "разве": 6477,
      "мусуль": 6478,
      "тут": 6479,
      "строения": 6480,
      "зоны": 6481,
      "Заги": 6482,
      "Кам": 6483,
      "пенсию": 6484,
      "Руково": 6485,
      "террористической": 6486,
      "звезд": 6487,
      "Sport": 6488,
      "предъяв": 6489,
      "говорят": 6490,
      "мигрантов": 6491,
      "Хельсинки": 6492,
      "енные": 6493,
      "зарубеж": 6494,
      "талья": 6495,
      "сезон": 6496,
      "доби": 6497,
      "государственных": 6498,
      "результатам": 6499,
      "журналисты": 6500,
      "Лидер": 6501,
      "счету": 6502,
      "контроля": 6503,
      "Китае": 6504,
      "предполагает": 6505,
      "нападающий": 6506,
      "максималь": 6507,
      "Австралии": 6508,
      "ЖК": 6509,
      "эф": 6510,
      "пройти": 6511,
      "стары": 6512,
      "века": 6513,
      "предлож": 6514,
      "шается": 6515,
      "участвовать": 6516,
      "объекты": 6517,
      "вариант": 6518,
      "устроили": 6519,
      "продю": 6520,
      "(@": 6521,
      "68": 6522,
      "Участ": 6523,
      "одо": 6524,
      "стрен": 6525,
      "зал": 6526,
      "хождения": 6527,
      "перепи": 6528,
      "женный": 6529,
      "тивных": 6530,
      "Мир": 6531,
      "коллед": 6532,
      "автоном": 6533,
      "Премьер": 6534,
      "Inter": 6535,
      "снял": 6536,
      "едино": 6537,
      "гресс": 6538,
      "рэпер": 6539,
      "сотрудничества": 6540,
      "крови": 6541,
      "ДТП": 6542,
      "ьет": 6543,
      "кано": 6544,
      "валось": 6545,
      "выстре": 6546,
      "душ": 6547,
      "ровку": 6548,
      "актера": 6549,
      "анта": 6550,
      "утром": 6551,
      "делам": 6552,
      "самое": 6553,
      "работала": 6554,
      "Одна": 6555,
      "получать": 6556,
      "истребителя": 6557,
      "сервиса": 6558,
      "Федеральной": 6559,
      "ущерб": 6560,
      "кадрах": 6561,
      "lin": 6562,
      "ДП": 6563,
      "Луч": 6564,
      "Шу": 6565,
      "стек": 6566,
      "носить": 6567,
      "рое": 6568,
      "силови": 6569,
      "мель": 6570,
      "осмо": 6571,
      "щика": 6572,
      "жала": 6573,
      "рассмот": 6574,
      "ченных": 6575,
      "исправи": 6576,
      "собо": 6577,
      "ert": 6578,
      "списке": 6579,
      "штаба": 6580,
      "большое": 6581,
      "промтор": 6582,
      "новременно": 6583,
      "Гран": 6584,
      "Дей": 6585,
      "Фили": 6586,
      "ешь": 6587,
      "енных": 6588,
      "направля": 6589,
      "речи": 6590,
      "миру": 6591,
      "митин": 6592,
      "строя": 6593,
      "добав": 6594,
      "здании": 6595,
      "взят": 6596,
      "новое": 6597,
      "Хашку": 6598,
      "обратил": 6599,
      "Минпромтор": 6600,
      "Центра": 6601,
      "МСП": 6602,
      "фрикан": 6603,
      "кампании": 6604,
      "гряз": 6605,
      "Универси": 6606,
      "РСМД": 6607,
      "Хашкуджи": 6608,
      "Вя": 6609,
      "Мон": 6610,
      "Юлия": 6611,
      "дно": 6612,
      "игру": 6613,
      "нении": 6614,
      "сви": 6615,
      "отказ": 6616,
      "летел": 6617,
      "ственную": 6618,
      "шают": 6619,
      "Рай": 6620,
      "сотрудни": 6621,
      "мьера": 6622,
      "Бель": 6623,
      "ведомство": 6624,
      "договорен": 6625,
      "дополнительные": 6626,
      "Союза": 6627,
      "Макгрегора": 6628,
      "ЧС": 6629,
      "кло": 6630,
      "опу": 6631,
      "чник": 6632,
      "лина": 6633,
      "лома": 6634,
      "досто": 6635,
      "дому": 6636,
      "мато": 6637,
      "выяв": 6638,
      "подвод": 6639,
      "ченные": 6640,
      "большие": 6641,
      "Рады": 6642,
      "местной": 6643,
      "позднее": 6644,
      "высокой": 6645,
      "лучшим": 6646,
      "атмо": 6647,
      "режим": 6648,
      "спортсменов": 6649,
      "комментарии": 6650,
      "федерального": 6651,
      "объяснила": 6652,
      "одино": 6653,
      "Apple": 6654,
      "54": 6655,
      "For": 6656,
      "ox": 6657,
      "Сла": 6658,
      "стях": 6659,
      "комо": 6660,
      "обили": 6661,
      "север": 6662,
      "разбира": 6663,
      "Москвой": 6664,
      "портов": 6665,
      "необы": 6666,
      "парали": 6667,
      "комплексов": 6668,
      "вызвали": 6669,
      "балла": 6670,
      "концерт": 6671,
      "агрессии": 6672,
      "Абсолют": 6673,
      "текущего": 6674,
      "Мекси": 6675,
      "Лав": 6676,
      "Фин": 6677,
      "Эта": 6678,
      "свыше": 6679,
      "назначи": 6680,
      "рее": 6681,
      "мате": 6682,
      "ровка": 6683,
      "зина": 6684,
      "работников": 6685,
      "обвинил": 6686,
      "группу": 6687,
      "Речь": 6688,
      "пытались": 6689,
      "операцию": 6690,
      "грузов": 6691,
      "полагает": 6692,
      "коллекции": 6693,
      "выросла": 6694,
      "карьере": 6695,
      "случившегося": 6696,
      "заявлял": 6697,
      "Меркель": 6698,
      "Фер": 6699,
      "свер": 6700,
      "дам": 6701,
      "инвали": 6702,
      "суток": 6703,
      "Росгвардии": 6704,
      "гран": 6705,
      "краси": 6706,
      "тельствах": 6707,
      "квартира": 6708,
      "Inde": 6709,
      "вызвал": 6710,
      "чиновников": 6711,
      "подготовки": 6712,
      "оценивается": 6713,
      "Николай": 6714,
      "предприятий": 6715,
      "вырос": 6716,
      "дипломатиче": 6717,
      "Калифор": 6718,
      "язви": 6719,
      "58": 6720,
      "ee": 6721,
      "влек": 6722,
      "вскоре": 6723,
      "спровоци": 6724,
      "зака": 6725,
      "вело": 6726,
      "ходом": 6727,
      "знает": 6728,
      "соблю": 6729,
      "обращения": 6730,
      "проведение": 6731,
      "Викто": 6732,
      "источников": 6733,
      "боевых": 6734,
      "составили": 6735,
      "топливо": 6736,
      "выполня": 6737,
      "чиновник": 6738,
      "назначения": 6739,
      "тюрем": 6740,
      "подписан": 6741,
      "пропаган": 6742,
      "отсутствие": 6743,
      "психи": 6744,
      "магазина": 6745,
      "диагности": 6746,
      "Футболи": 6747,
      "Mor": 6748,
      "вро": 6749,
      "опыт": 6750,
      "стные": 6751,
      "нился": 6752,
      "предела": 6753,
      "желе": 6754,
      "щики": 6755,
      "мун": 6756,
      "ментом": 6757,
      "жают": 6758,
      "экстрен": 6759,
      "сборную": 6760,
      "счета": 6761,
      "вернулся": 6762,
      "повед": 6763,
      "регуля": 6764,
      "спецслужбы": 6765,
      "хозяйства": 6766,
      "предположительно": 6767,
      "изъя": 6768,
      "ly": 6769,
      "вклад": 6770,
      "нан": 6771,
      "референ": 6772,
      "недоволь": 6773,
      "дах": 6774,
      "доходов": 6775,
      "команди": 6776,
      "Перед": 6777,
      "проекте": 6778,
      "Челябин": 6779,
      "занимается": 6780,
      "родителей": 6781,
      "россиянина": 6782,
      "принадлежит": 6783,
      "прокуратура": 6784,
      "сервис": 6785,
      "Газпром": 6786,
      "МП": 6787,
      "гона": 6788,
      "риск": 6789,
      "неу": 6790,
      "неуда": 6791,
      "декса": 6792,
      "проз": 6793,
      "отправля": 6794,
      "тельными": 6795,
      "подразде": 6796,
      "сообщества": 6797,
      "мян": 6798,
      "смотри": 6799,
      "слави": 6800,
      "министров": 6801,
      "случаев": 6802,
      "нена": 6803,
      "ненко": 6804,
      "лучших": 6805,
      "продолжает": 6806,
      "Жительница": 6807,
      "ролике": 6808,
      "выступление": 6809,
      "Полицей": 6810,
      "девяти": 6811,
      "Ави": 6812,
      "Дом": 6813,
      "зени": 6814,
      "уса": 6815,
      "номина": 6816,
      "замени": 6817,
      "сама": 6818,
      "слуша": 6819,
      "делает": 6820,
      "суммы": 6821,
      "защитника": 6822,
      "подтвержда": 6823,
      "граждане": 6824,
      "Am": 6825,
      "ror": 6826,
      "Груп": 6827,
      "Крас": 6828,
      "Свя": 6829,
      "жо": 6830,
      "иран": 6831,
      "опи": 6832,
      "плы": 6833,
      "цар": 6834,
      "лечение": 6835,
      "прой": 6836,
      "руку": 6837,
      "овать": 6838,
      "докла": 6839,
      "осла": 6840,
      "аква": 6841,
      "любов": 6842,
      "циям": 6843,
      "ровок": 6844,
      "серде": 6845,
      "фактически": 6846,
      "состоялась": 6847,
      "исследование": 6848,
      "Джор": 6849,
      "происходя": 6850,
      "эконом": 6851,
      "Вяче": 6852,
      "to": 6853,
      "Пла": 6854,
      "вс": 6855,
      "пени": 6856,
      "уэ": 6857,
      "шему": 6858,
      "моро": 6859,
      "жида": 6860,
      "разно": 6861,
      "шаг": 6862,
      "последних": 6863,
      "рованные": 6864,
      "рованный": 6865,
      "Северо": 6866,
      "матчей": 6867,
      "Российские": 6868,
      "предоставля": 6869,
      "проверя": 6870,
      "Украинская": 6871,
      "произошедшее": 6872,
      "Вашингтона": 6873,
      "стойчи": 6874,
      "носит": 6875,
      "событий": 6876,
      "пова": 6877,
      "сной": 6878,
      "шак": 6879,
      "полов": 6880,
      "дами": 6881,
      "деб": 6882,
      "моно": 6883,
      "мори": 6884,
      "дор": 6885,
      "лями": 6886,
      "осен": 6887,
      "куро": 6888,
      "инду": 6889,
      "конститу": 6890,
      "начально": 6891,
      "остались": 6892,
      "семья": 6893,
      "продаже": 6894,
      "топлива": 6895,
      "материалов": 6896,
      "потерял": 6897,
      "путешествен": 6898,
      "Сообщается": 6899,
      "oy": 6900,
      "Мур": 6901,
      "Ты": 6902,
      "сятся": 6903,
      "бий": 6904,
      "терна": 6905,
      "снимок": 6906,
      "слава": 6907,
      "Татья": 6908,
      "провода": 6909,
      "2007": 6910,
      "Арген": 6911,
      "обнаружил": 6912,
      "транспорта": 6913,
      "обратили": 6914,
      "медленно": 6915,
      "Red": 6916,
      "Кав": 6917,
      "Эм": 6918,
      "африкан": 6919,
      "жные": 6920,
      "рат": 6921,
      "раун": 6922,
      "насили": 6923,
      "записа": 6924,
      "меч": 6925,
      "писто": 6926,
      "хотели": 6927,
      "гие": 6928,
      "любы": 6929,
      "публику": 6930,
      "большим": 6931,
      "правильно": 6932,
      "обращение": 6933,
      "Само": 6934,
      "пытается": 6935,
      "Хабаров": 6936,
      "меньшей": 6937,
      "учиты": 6938,
      "проводится": 6939,
      "влияние": 6940,
      "успешно": 6941,
      "воспита": 6942,
      "Степа": 6943,
      "MMA": 6944,
      "завод": 6945,
      "сибир": 6946,
      "стили": 6947,
      "безу": 6948,
      "утра": 6949,
      "гера": 6950,
      "зора": 6951,
      "шены": 6952,
      "чук": 6953,
      "заявлением": 6954,
      "четверть": 6955,
      "этапе": 6956,
      "политика": 6957,
      "респондентов": 6958,
      "отечествен": 6959,
      "исключительно": 6960,
      "Mirror": 6961,
      "Браз": 6962,
      "Зе": 6963,
      "аук": 6964,
      "юго": 6965,
      "отклю": 6966,
      "подчи": 6967,
      "возника": 6968,
      "редко": 6969,
      "остался": 6970,
      "местного": 6971,
      "автори": 6972,
      "ющиеся": 6973,
      "попасть": 6974,
      "режиме": 6975,
      "режиссер": 6976,
      "бренд": 6977,
      "покинул": 6978,
      "наказания": 6979,
      "рейтинге": 6980,
      "промышленности": 6981,
      "рестора": 6982,
      "бомбардиров": 6983,
      "испыты": 6984,
      "dit": 6985,
      "Гон": 6986,
      "День": 6987,
      "Идли": 6988,
      "Ке": 6989,
      "Фи": 6990,
      "емая": 6991,
      "шкин": 6992,
      "нелега": 6993,
      "лера": 6994,
      "падение": 6995,
      "начались": 6996,
      "шено": 6997,
      "водить": 6998,
      "показатели": 6999,
      "исследований": 7000,
      "животное": 7001,
      "требуется": 7002,
      "Лондоне": 7003,
      "визита": 7004,
      "празднова": 7005,
      "корпорации": 7006,
      "создан": 7007,
      "смешанного": 7008,
      "64": 7009,
      "Br": 7010,
      "ure": 7011,
      "ВТ": 7012,
      "Нет": 7013,
      "Прави": 7014,
      "голь": 7015,
      "капи": 7016,
      "тик": 7017,
      "сигна": 7018,
      "прома": 7019,
      "паспорта": 7020,
      "природ": 7021,
      "тельству": 7022,
      "хождение": 7023,
      "Пока": 7024,
      "зий": 7025,
      "зия": 7026,
      "сказали": 7027,
      "добавив": 7028,
      "спасти": 7029,
      "Московский": 7030,
      "легком": 7031,
      "электри": 7032,
      "машине": 7033,
      "статус": 7034,
      "касается": 7035,
      "присоедини": 7036,
      "сопровожда": 7037,
      "Ели": 7038,
      "тение": 7039,
      "дают": 7040,
      "праши": 7041,
      "комфор": 7042,
      "своему": 7043,
      "третий": 7044,
      "публика": 7045,
      "трополи": 7046,
      "результат": 7047,
      "Реала": 7048,
      "парка": 7049,
      "парке": 7050,
      "преступлений": 7051,
      "уточнили": 7052,
      "Нович": 7053,
      "аренду": 7054,
      "рэпера": 7055,
      "экстремист": 7056,
      "59": 7057,
      "pend": 7058,
      "БР": 7059,
      "застрой": 7060,
      "изуча": 7061,
      "живет": 7062,
      "глаза": 7063,
      "ань": 7064,
      "ставила": 7065,
      "оборон": 7066,
      "последствия": 7067,
      "Нидер": 7068,
      "побед": 7069,
      "бюро": 7070,
      "активе": 7071,
      "потребовал": 7072,
      "предварительным": 7073,
      "снаб": 7074,
      "стадионе": 7075,
      "абсолютно": 7076,
      "заболеваний": 7077,
      "Официаль": 7078,
      "69": 7079,
      "Wh": 7080,
      "МКС": 7081,
      "Сбер": 7082,
      "волю": 7083,
      "присво": 7084,
      "вычай": 7085,
      "целе": 7086,
      "мети": 7087,
      "метр": 7088,
      "соба": 7089,
      "стреля": 7090,
      "197": 7091,
      "новом": 7092,
      "самолеты": 7093,
      "подал": 7094,
      "единок": 7095,
      "морской": 7096,
      "фильм": 7097,
      "вооружение": 7098,
      "артиста": 7099,
      "намерены": 7100,
      "Черче": 7101,
      "имущество": 7102,
      "финансовых": 7103,
      "акаде": 7104,
      "болезни": 7105,
      "валюты": 7106,
      "конкурен": 7107,
      "Документ": 7108,
      "iz": 7109,
      "Мен": 7110,
      "МЧС": 7111,
      "плен": 7112,
      "товой": 7113,
      "уте": 7114,
      "льную": 7115,
      "стор": 7116,
      "хол": 7117,
      "началась": 7118,
      "Заха": 7119,
      "состоялся": 7120,
      "подоро": 7121,
      "Пресс": 7122,
      "дальше": 7123,
      "дальности": 7124,
      "оценили": 7125,
      "привлечь": 7126,
      "приобрести": 7127,
      "полковник": 7128,
      "угле": 7129,
      "Филип": 7130,
      "ver": 7131,
      "Аф": 7132,
      "взы": 7133,
      "урегули": 7134,
      "поблагода": 7135,
      "дес": 7136,
      "мадрид": 7137,
      "приро": 7138,
      "прият": 7139,
      "совсем": 7140,
      "ходил": 7141,
      "резер": 7142,
      "Пекин": 7143,
      "стерлин": 7144,
      "округе": 7145,
      "превышает": 7146,
      "соцсети": 7147,
      "Кокорина": 7148,
      "уволь": 7149,
      "Кореи": 7150,
      "Служ": 7151,
      "Independ": 7152,
      "Нидерлан": 7153,
      "стерлингов": 7154,
      "se": 7155,
      "Сем": 7156,
      "сложи": 7157,
      "уль": 7158,
      "фонов": 7159,
      "рет": 7160,
      "камеры": 7161,
      "завода": 7162,
      "отбы": 7163,
      "ческом": 7164,
      "привел": 7165,
      "выстав": 7166,
      "серий": 7167,
      "первая": 7168,
      "действова": 7169,
      "Ради": 7170,
      "списка": 7171,
      "охран": 7172,
      "Бай": 7173,
      "дьми": 7174,
      "британском": 7175,
      "реализу": 7176,
      "подготовке": 7177,
      "жительница": 7178,
      "попытки": 7179,
      "снимки": 7180,
      "ежегодно": 7181,
      "астро": 7182,
      "дян": 7183,
      "двор": 7184,
      "стен": 7185,
      "лий": 7186,
      "водой": 7187,
      "важно": 7188,
      "миссии": 7189,
      "Например": 7190,
      "российское": 7191,
      "большин": 7192,
      "средняя": 7193,
      "курса": 7194,
      "подчеркнула": 7195,
      "антидопин": 7196,
      "заместителя": 7197,
      "ys": 7198,
      "Ом": 7199,
      "запу": 7200,
      "тащи": 7201,
      "соотечествен": 7202,
      "моей": 7203,
      "приори": 7204,
      "чал": 7205,
      "часы": 7206,
      "чия": 7207,
      "печа": 7208,
      "лум": 7209,
      "страхов": 7210,
      "предстоя": 7211,
      "теров": 7212,
      "графии": 7213,
      "политик": 7214,
      "аналитиков": 7215,
      "изменений": 7216,
      "задача": 7217,
      "Большинство": 7218,
      "журнала": 7219,
      "Independent": 7220,
      "Be": 7221,
      "ассоциации": 7222,
      "тную": 7223,
      "стно": 7224,
      "годом": 7225,
      "забо": 7226,
      "тился": 7227,
      "соли": 7228,
      "жителям": 7229,
      "аксе": 7230,
      "шена": 7231,
      "опубликовало": 7232,
      "трой": 7233,
      "стовер": 7234,
      "мирал": 7235,
      "Ролик": 7236,
      "кроко": 7237,
      "Великобритания": 7238,
      "давление": 7239,
      "перио": 7240,
      "аэропорт": 7241,
      "окружа": 7242,
      "музыка": 7243,
      "рейтинга": 7244,
      "космической": 7245,
      "генерального": 7246,
      "категории": 7247,
      "Спортсмен": 7248,
      "прежнему": 7249,
      "ворота": 7250,
      "чрезвычай": 7251,
      "Вене": 7252,
      "Звезда": 7253,
      "Ирана": 7254,
      "нбур": 7255,
      "опаса": 7256,
      "сбо": 7257,
      "гостей": 7258,
      "приехал": 7259,
      "жителя": 7260,
      "щает": 7261,
      "повтор": 7262,
      "класси": 7263,
      "врачей": 7264,
      "пытаются": 7265,
      "обнаружены": 7266,
      "продолжитель": 7267,
      "карты": 7268,
      "повысить": 7269,
      "объявила": 7270,
      "Краснода": 7271,
      "Министерства": 7272,
      "указывает": 7273,
      "Джейм": 7274,
      "Венг": 7275,
      "магазин": 7276,
      "iat": 7277,
      "Ат": 7278,
      "Сначала": 7279,
      "Ше": 7280,
      "огра": 7281,
      "расти": 7282,
      "рим": 7283,
      "такую": 7284,
      "чел": 7285,
      "вышли": 7286,
      "2021": 7287,
      "зировать": 7288,
      "тивный": 7289,
      "правления": 7290,
      "экстра": 7291,
      "берг": 7292,
      "ненави": 7293,
      "установили": 7294,
      "исследователь": 7295,
      "политике": 7296,
      "огне": 7297,
      "популярность": 7298,
      "пункта": 7299,
      "благотвори": 7300,
      "заболевания": 7301,
      "второе": 7302,
      "проанализировали": 7303,
      "мариху": 7304,
      "Кадыров": 7305,
      "Маль": 7306,
      "Ры": 7307,
      "Спарта": 7308,
      "нная": 7309,
      "сформи": 7310,
      "уника": 7311,
      "пари": 7312,
      "пел": 7313,
      "пуль": 7314,
      "путем": 7315,
      "Роснефти": 7316,
      "людьми": 7317,
      "снижение": 7318,
      "ударил": 7319,
      "МиГ": 7320,
      "ющийся": 7321,
      "команде": 7322,
      "2004": 7323,
      "250": 7324,
      "письма": 7325,
      "ареста": 7326,
      "режиссе": 7327,
      "наркотиков": 7328,
      "выпустил": 7329,
      "CNN": 7330,
      "имость": 7331,
      "счаст": 7332,
      "убор": 7333,
      "учетом": 7334,
      "канад": 7335,
      "мит": 7336,
      "манов": 7337,
      "пребы": 7338,
      "Бой": 7339,
      "Ники": 7340,
      "Вселен": 7341,
      "пустили": 7342,
      "напали": 7343,
      "заниматься": 7344,
      "девушку": 7345,
      "влека": 7346,
      "угрозу": 7347,
      "протеста": 7348,
      "семью": 7349,
      "друзей": 7350,
      "поездки": 7351,
      "Аэрофлот": 7352,
      "монито": 7353,
      "ld": 7354,
      "АЗ": 7355,
      "Шве": 7356,
      "ас": 7357,
      "ик": 7358,
      "назем": 7359,
      "кори": 7360,
      "готова": 7361,
      "отка": 7362,
      "ходу": 7363,
      "бить": 7364,
      "спокой": 7365,
      "начать": 7366,
      "Воло": 7367,
      "рья": 7368,
      "Максим": 7369,
      "специалист": 7370,
      "корабль": 7371,
      "поддержке": 7372,
      "машина": 7373,
      "аренды": 7374,
      "электронной": 7375,
      "Мамаева": 7376,
      "говари": 7377,
      "95": 7378,
      "tor": 7379,
      "Джен": 7380,
      "жный": 7381,
      "сведения": 7382,
      "поступ": 7383,
      "митрополи": 7384,
      "вина": 7385,
      "мане": 7386,
      "приговорил": 7387,
      "выде": 7388,
      "препода": 7389,
      "хорва": 7390,
      "гий": 7391,
      "балли": 7392,
      "полуго": 7393,
      "технику": 7394,
      "Извести": 7395,
      "мальчика": 7396,
      "кредитов": 7397,
      "инфек": 7398,
      "запрещено": 7399,
      "уверены": 7400,
      "устройство": 7401,
      "языке": 7402,
      "сирийской": 7403,
      "China": 7404,
      "летия": 7405,
      "национали": 7406,
      "устанавли": 7407,
      "подозрению": 7408,
      "петербург": 7409,
      "Азербайджа": 7410,
      "ОМ": 7411,
      "Сво": 7412,
      "ФИ": 7413,
      "нашел": 7414,
      "пола": 7415,
      "понять": 7416,
      "терак": 7417,
      "вози": 7418,
      "сии": 7419,
      "выдви": 7420,
      "Напада": 7421,
      "art": 7422,
      "Сирию": 7423,
      "авторы": 7424,
      "новостей": 7425,
      "общественного": 7426,
      "клиентов": 7427,
      "Путину": 7428,
      "процесса": 7429,
      "остановить": 7430,
      "Северного": 7431,
      "Германия": 7432,
      "наблюдения": 7433,
      "случайно": 7434,
      "приговорен": 7435,
      "форвард": 7436,
      "огонь": 7437,
      "ножом": 7438,
      "Ингушетии": 7439,
      "ADA": 7440,
      "Финлян": 7441,
      "баллистиче": 7442,
      "120": 7443,
      "Ах": 7444,
      "Дем": 7445,
      "нг": 7446,
      "ушел": 7447,
      "запуска": 7448,
      "допуска": 7449,
      "веществ": 7450,
      "дум": 7451,
      "сувер": 7452,
      "подряд": 7453,
      "бази": 7454,
      "ленд": 7455,
      "держива": 7456,
      "Наи": 7457,
      "вшими": 7458,
      "явление": 7459,
      "задержала": 7460,
      "тамбу": 7461,
      "делок": 7462,
      "этап": 7463,
      "свидете": 7464,
      "Американская": 7465,
      "заседания": 7466,
      "Главный": 7467,
      "Адвока": 7468,
      "ремонт": 7469,
      "ive": 7470,
      "Пя": 7471,
      "Пхен": 7472,
      "устрои": 7473,
      "уязви": 7474,
      "зале": 7475,
      "прожива": 7476,
      "мужа": 7477,
      "буты": 7478,
      "главу": 7479,
      "Наде": 7480,
      "гео": 7481,
      "парков": 7482,
      "задержании": 7483,
      "соверша": 7484,
      "сборная": 7485,
      "чиновника": 7486,
      "Белого": 7487,
      "венгер": 7488,
      "опроса": 7489,
      "Говорит": 7490,
      "PDT": 7491,
      "Эй": 7492,
      "бре": 7493,
      "дю": 7494,
      "нрави": 7495,
      "скова": 7496,
      "енный": 7497,
      "сосе": 7498,
      "летнюю": 7499,
      "мыми": 7500,
      "знача": 7501,
      "никова": 7502,
      "безопасность": 7503,
      "Извест": 7504,
      "качество": 7505,
      "оружием": 7506,
      "февраля": 7507,
      "областях": 7508,
      "реклам": 7509,
      "Ольги": 7510,
      "боевиков": 7511,
      "СБУ": 7512,
      "Цепов": 7513,
      "US": 7514,
      "ge": 7515,
      "Вот": 7516,
      "бак": 7517,
      "гло": 7518,
      "нс": 7519,
      "рка": 7520,
      "щений": 7521,
      "накануне": 7522,
      "пожи": 7523,
      "еть": 7524,
      "соч": 7525,
      "допро": 7526,
      "гипер": 7527,
      "возобнов": 7528,
      "ходили": 7529,
      "строго": 7530,
      "звание": 7531,
      "банки": 7532,
      "программ": 7533,
      "ликвида": 7534,
      "политику": 7535,
      "Руслан": 7536,
      "игр": 7537,
      "истребитель": 7538,
      "попытке": 7539,
      "глубо": 7540,
      "возвраща": 7541,
      "Бердян": 7542,
      "уточняет": 7543,
      "мозга": 7544,
      "Право": 7545,
      "Петрося": 7546,
      "аксессу": 7547,
      "Арти": 7548,
      "Стамбу": 7549,
      "ами": 7550,
      "говая": 7551,
      "дни": 7552,
      "поря": 7553,
      "изде": 7554,
      "думы": 7555,
      "иннова": 7556,
      "будь": 7557,
      "люми": 7558,
      "биат": 7559,
      "собственной": 7560,
      "начался": 7561,
      "надзор": 7562,
      "комиссия": 7563,
      "продаж": 7564,
      "Александ": 7565,
      "властям": 7566,
      "родители": 7567,
      "Луганской": 7568,
      "полномочий": 7569,
      "половины": 7570,
      "фестиваля": 7571,
      "квалифици": 7572,
      "Эрдо": 7573,
      "Guard": 7574,
      "67": 7575,
      "Брю": 7576,
      "Вин": 7577,
      "КНР": 7578,
      "Оте": 7579,
      "введения": 7580,
      "поя": 7581,
      "таком": 7582,
      "деву": 7583,
      "мастер": 7584,
      "привы": 7585,
      "жел": 7586,
      "Пострада": 7587,
      "предложен": 7588,
      "консу": 7589,
      "ченный": 7590,
      "платы": 7591,
      "полузащитник": 7592,
      "действует": 7593,
      "компанию": 7594,
      "отношению": 7595,
      "двум": 7596,
      "народной": 7597,
      "офицер": 7598,
      "операция": 7599,
      "отправили": 7600,
      "Вашингто": 7601,
      "Керченского": 7602,
      "инвестиций": 7603,
      "Национальной": 7604,
      "испытания": 7605,
      "саммита": 7606,
      "Большой": 7607,
      "Королев": 7608,
      "Предполагается": 7609,
      "Ar": 7610,
      "IT": 7611,
      "Зу": 7612,
      "Кем": 7613,
      "СН": 7614,
      "заку": 7615,
      "моти": 7616,
      "чев": 7617,
      "вызов": 7618,
      "щими": 7619,
      "Кара": 7620,
      "удара": 7621,
      "признан": 7622,
      "работали": 7623,
      "мнения": 7624,
      "лондон": 7625,
      "связаны": 7626,
      "сотрудничество": 7627,
      "звезды": 7628,
      "приговор": 7629,
      "Стоимость": 7630,
      "статисти": 7631,
      "Матч": 7632,
      "вспом": 7633,
      "Кузнец": 7634,
      "взыска": 7635,
      "ax": 7636,
      "eing": 7637,
      "ph": 7638,
      "Агент": 7639,
      "Новая": 7640,
      "ФР": 7641,
      "Яку": 7642,
      "ввели": 7643,
      "рези": 7644,
      "неизвестно": 7645,
      "недавно": 7646,
      "профи": 7647,
      "мона": 7648,
      "мально": 7649,
      "прину": 7650,
      "ленным": 7651,
      "альти": 7652,
      "тивной": 7653,
      "торговой": 7654,
      "Рам": 7655,
      "отметив": 7656,
      "оборот": 7657,
      "нарушений": 7658,
      "опубликованы": 7659,
      "судно": 7660,
      "ланде": 7661,
      "Только": 7662,
      "московском": 7663,
      "боепри": 7664,
      "причины": 7665,
      "футболисты": 7666,
      "депутата": 7667,
      "энергии": 7668,
      "Китаем": 7669,
      "сотрудничестве": 7670,
      "добычи": 7671,
      "оборудования": 7672,
      "Боширов": 7673,
      "пресечения": 7674,
      "Press": 7675,
      "eg": 7676,
      "решению": 7677,
      "тема": 7678,
      "видов": 7679,
      "диску": 7680,
      "оттен": 7681,
      "чечен": 7682,
      "премьера": 7683,
      "чая": 7684,
      "сада": 7685,
      "менно": 7686,
      "бек": 7687,
      "Росля": 7688,
      "ловых": 7689,
      "биологи": 7690,
      "рабочих": 7691,
      "обой": 7692,
      "американским": 7693,
      "пенальти": 7694,
      "главным": 7695,
      "блок": 7696,
      "километрах": 7697,
      "закону": 7698,
      "Центро": 7699,
      "спорте": 7700,
      "количества": 7701,
      "воздух": 7702,
      "подписали": 7703,
      "Новый": 7704,
      "православная": 7705,
      "выиграл": 7706,
      "зарплаты": 7707,
      "зрителей": 7708,
      "распространя": 7709,
      "увидел": 7710,
      "совеща": 7711,
      "опухо": 7712,
      "мониторин": 7713,
      "ud": 7714,
      "Бли": 7715,
      "СЕ": 7716,
      "Хи": 7717,
      "поможет": 7718,
      "такси": 7719,
      "история": 7720,
      "рованной": 7721,
      "газете": 7722,
      "фильмов": 7723,
      "стоимостью": 7724,
      "выплатить": 7725,
      "имуще": 7726,
      "оценкам": 7727,
      "потребовали": 7728,
      "вмешательстве": 7729,
      "титул": 7730,
      "Англии": 7731,
      "Com": 7732,
      "Med": 7733,
      "ПЛ": 7734,
      "Ярослав": 7735,
      "стон": 7736,
      "льской": 7737,
      "несет": 7738,
      "можем": 7739,
      "магни": 7740,
      "станут": 7741,
      "отрави": 7742,
      "преследова": 7743,
      "разрабаты": 7744,
      "поднима": 7745,
      "цеп": 7746,
      "одному": 7747,
      "фект": 7748,
      "работки": 7749,
      "Результа": 7750,
      "случаях": 7751,
      "обнаружила": 7752,
      "напал": 7753,
      "преступление": 7754,
      "товары": 7755,
      "размещен": 7756,
      "содержания": 7757,
      "Star": 7758,
      "попытались": 7759,
      "набрал": 7760,
      "Порту": 7761,
      "Boeing": 7762,
      "Депутат": 7763,
      "Минпромторга": 7764,
      "пройдут": 7765,
      "Елена": 7766,
      "жности": 7767,
      "сделок": 7768,
      "енти": 7769,
      "начи": 7770,
      "зав": 7771,
      "зак": 7772,
      "мораль": 7773,
      "отставку": 7774,
      "чества": 7775,
      "призы": 7776,
      "приез": 7777,
      "препят": 7778,
      "инг": 7779,
      "шина": 7780,
      "ковые": 7781,
      "перехва": 7782,
      "альян": 7783,
      "Кай": 7784,
      "добиться": 7785,
      "обез": 7786,
      "Реал": 7787,
      "Петра": 7788,
      "ландии": 7789,
      "менять": 7790,
      "версию": 7791,
      "московскому": 7792,
      "властями": 7793,
      "исполнения": 7794,
      "республике": 7795,
      "охраны": 7796,
      "спецслужб": 7797,
      "дополнительных": 7798,
      "пояснила": 7799,
      "одержал": 7800,
      "Аргенти": 7801,
      "Guardian": 7802,
      "Кен": 7803,
      "НП": 7804,
      "зло": 7805,
      "спрос": 7806,
      "стки": 7807,
      "льности": 7808,
      "сив": 7809,
      "выдели": 7810,
      "секс": 7811,
      "преодо": 7812,
      "базу": 7813,
      "главой": 7814,
      "тенни": 7815,
      "ood": 7816,
      "хули": 7817,
      "третьего": 7818,
      "принца": 7819,
      "одежду": 7820,
      "торговых": 7821,
      "гражданам": 7822,
      "серьезно": 7823,
      "европейских": 7824,
      "редакции": 7825,
      "доказательств": 7826,
      "университет": 7827,
      "сферы": 7828,
      "директоров": 7829,
      "ha": 7830,
      "ib": 7831,
      "змом": 7832,
      "рной": 7833,
      "шти": 7834,
      "заведения": 7835,
      "отя": 7836,
      "привод": 7837,
      "выгод": 7838,
      "преде": 7839,
      "больших": 7840,
      "стребова": 7841,
      "Коман": 7842,
      "работо": 7843,
      "представил": 7844,
      "брат": 7845,
      "врач": 7846,
      "парк": 7847,
      "вопросу": 7848,
      "необходимость": 7849,
      "сняли": 7850,
      "клубе": 7851,
      "открыл": 7852,
      "получают": 7853,
      "запрещена": 7854,
      "Лондона": 7855,
      "посетителей": 7856,
      "Норве": 7857,
      "Париже": 7858,
      "видуаль": 7859,
      "Ленинград": 7860,
      "воспользова": 7861,
      "Бразили": 7862,
      "девушек": 7863,
      "МА": 7864,
      "Ожида": 7865,
      "Пов": 7866,
      "исте": 7867,
      "клон": 7868,
      "ллек": 7869,
      "нагруз": 7870,
      "нока": 7871,
      "лицен": 7872,
      "вирус": 7873,
      "динами": 7874,
      "прибыл": 7875,
      "сера": 7876,
      "бого": 7877,
      "рови": 7878,
      "разби": 7879,
      "предстоит": 7880,
      "сказано": 7881,
      "немного": 7882,
      "автома": 7883,
      "Ниж": 7884,
      "радика": 7885,
      "родился": 7886,
      "Дина": 7887,
      "полковника": 7888,
      "посадку": 7889,
      "дверь": 7890,
      "51": 7891,
      "ЕК": 7892,
      "Тор": 7893,
      "евре": 7894,
      "уполномо": 7895,
      "устойчи": 7896,
      "воката": 7897,
      "руются": 7898,
      "приговорили": 7899,
      "тельность": 7900,
      "ленном": 7901,
      "перешел": 7902,
      "участвовали": 7903,
      "американская": 7904,
      "Такие": 7905,
      "территорий": 7906,
      "нервно": 7907,
      "обществен": 7908,
      "республикан": 7909,
      "попросила": 7910,
      "сериала": 7911,
      "привело": 7912,
      "квартале": 7913,
      "Новичок": 7914,
      "AS": 7915,
      "iv": 7916,
      "Иван": 7917,
      "Уголов": 7918,
      "Швей": 7919,
      "древ": 7920,
      "плю": 7921,
      "справи": 7922,
      "подар": 7923,
      "кома": 7924,
      "нори": 7925,
      "запущен": 7926,
      "проник": 7927,
      "дохода": 7928,
      "стара": 7929,
      "приста": 7930,
      "бою": 7931,
      "холод": 7932,
      "кови": 7933,
      "орби": 7934,
      "балан": 7935,
      "дыва": 7936,
      "платить": 7937,
      "начало": 7938,
      "десятков": 7939,
      "uss": 7940,
      "взять": 7941,
      "супруга": 7942,
      "ядерной": 7943,
      "весной": 7944,
      "увеличение": 7945,
      "комментариев": 7946,
      "индивидуаль": 7947,
      "консульства": 7948,
      "инвесторов": 7949,
      "Екатеринбур": 7950,
      "Лавров": 7951,
      "ВТБ": 7952,
      "600": 7953,
      "Джи": 7954,
      "Свет": 7955,
      "йской": 7956,
      "смени": 7957,
      "убы": 7958,
      "пожизнен": 7959,
      "коали": 7960,
      "никак": 7961,
      "востребова": 7962,
      "пал": 7963,
      "пригрози": 7964,
      "села": 7965,
      "саудов": 7966,
      "пить": 7967,
      "судом": 7968,
      "ровался": 7969,
      "детям": 7970,
      "перене": 7971,
      "перспек": 7972,
      "объеди": 7973,
      "ссен": 7974,
      "писали": 7975,
      "федерации": 7976,
      "ant": 7977,
      "Саха": 7978,
      "группой": 7979,
      "остальные": 7980,
      "адвоката": 7981,
      "ведений": 7982,
      "главных": 7983,
      "крупные": 7984,
      "отправил": 7985,
      "старше": 7986,
      "сельхо": 7987,
      "скорость": 7988,
      "договорились": 7989,
      "сантиметров": 7990,
      "Con": 7991,
      "оч": 7992,
      "фто": 7993,
      "рата": 7994,
      "нив": 7995,
      "катера": 7996,
      "неожи": 7997,
      "тебя": 7998,
      "можен": 7999,
      "рыва": 8000,
      "переход": 8001,
      "ступление": 8002,
      "наличие": 8003,
      "Таи": 8004,
      "мужчине": 8005,
      "Роман": 8006,
      "коллега": 8007,
      "необходимые": 8008,
      "футбола": 8009,
      "полагают": 8010,
      "уголовных": 8011,
      "обратились": 8012,
      "школе": 8013,
      "ведущий": 8014,
      "остановиться": 8015,
      "нормаль": 8016,
      "правоохранительные": 8017,
      "производителей": 8018,
      "устройств": 8019,
      "игроков": 8020,
      "алкоголя": 8021,
      "Локомо": 8022,
      "приведет": 8023,
      "Сообщалось": 8024,
      "подписчиков": 8025,
      "избежать": 8026,
      "Ass": 8027,
      "Кудря": 8028,
      "сегодняшний": 8029,
      "Афгани": 8030,
      "боеприпа": 8031,
      "Бор": 8032,
      "Врачи": 8033,
      "Два": 8034,
      "юн": 8035,
      "заранее": 8036,
      "непосред": 8037,
      "состоит": 8038,
      "сохран": 8039,
      "стабили": 8040,
      "отда": 8041,
      "бери": 8042,
      "держать": 8043,
      "становится": 8044,
      "Сама": 8045,
      "командова": 8046,
      "Конститу": 8047,
      "внимания": 8048,
      "концеп": 8049,
      "значит": 8050,
      "предлагается": 8051,
      "Австрии": 8052,
      "используют": 8053,
      "районах": 8054,
      "Калинин": 8055,
      "определить": 8056,
      "мошенничестве": 8057,
      "Вооруженных": 8058,
      "Чемпиона": 8059,
      "Группа": 8060,
      "аксессуа": 8061,
      "66": 8062,
      "85": 8063,
      "Ги": 8064,
      "Уай": 8065,
      "брон": 8066,
      "входят": 8067,
      "впечат": 8068,
      "длин": 8069,
      "хро": 8070,
      "эмо": 8071,
      "наслед": 8072,
      "обли": 8073,
      "тает": 8074,
      "видела": 8075,
      "сина": 8076,
      "издели": 8077,
      "падения": 8078,
      "информи": 8079,
      "букси": 8080,
      "бас": 8081,
      "планах": 8082,
      "голове": 8083,
      "команд": 8084,
      "Новосибир": 8085,
      "Кубка": 8086,
      "чемпионат": 8087,
      "уточнила": 8088,
      "блока": 8089,
      "сроки": 8090,
      "здоровью": 8091,
      "отношениях": 8092,
      "хотела": 8093,
      "Макгрего": 8094,
      "Международной": 8095,
      "бойцовского": 8096,
      "Wor": 8097,
      "Ван": 8098,
      "оставить": 8099,
      "пожела": 8100,
      "полез": 8101,
      "лице": 8102,
      "волон": 8103,
      "лечения": 8104,
      "ваем": 8105,
      "дик": 8106,
      "выру": 8107,
      "кура": 8108,
      "бежен": 8109,
      "альтерна": 8110,
      "ity": 8111,
      "оккупи": 8112,
      "фабри": 8113,
      "Сум": 8114,
      "телеканалу": 8115,
      "руководства": 8116,
      "пунктов": 8117,
      "нападающего": 8118,
      "оперативно": 8119,
      "пояснили": 8120,
      "прыг": 8121,
      "автокефалии": 8122,
      "Sci": 8123,
      "Афри": 8124,
      "ДРСМД": 8125,
      "Зи": 8126,
      "Мона": 8127,
      "идут": 8128,
      "тской": 8129,
      "фраг": 8130,
      "нашего": 8131,
      "помимо": 8132,
      "лана": 8133,
      "зап": 8134,
      "несла": 8135,
      "овала": 8136,
      "выбира": 8137,
      "овокуп": 8138,
      "гим": 8139,
      "судо": 8140,
      "расходов": 8141,
      "ровая": 8142,
      "фили": 8143,
      "ленную": 8144,
      "денте": 8145,
      "Накануне": 8146,
      "Наталья": 8147,
      "канц": 8148,
      "взрос": 8149,
      "Информа": 8150,
      "среднего": 8151,
      "банды": 8152,
      "защите": 8153,
      "Пара": 8154,
      "160": 8155,
      "боевой": 8156,
      "Отмечалось": 8157,
      "Украинские": 8158,
      "подозреваемого": 8159,
      "Стани": 8160,
      "прекратить": 8161,
      "Губерна": 8162,
      "саммите": 8163,
      "Земли": 8164,
      "финансовой": 8165,
      "мусульман": 8166,
      "700": 8167,
      "Fran": 8168,
      "TV": 8169,
      "Сим": 8170,
      "озе": 8171,
      "рги": 8172,
      "слы": 8173,
      "цова": 8174,
      "посчитали": 8175,
      "пролив": 8176,
      "скорой": 8177,
      "патру": 8178,
      "привет": 8179,
      "прикры": 8180,
      "примени": 8181,
      "выбро": 8182,
      "севере": 8183,
      "разработан": 8184,
      "одновременно": 8185,
      "никах": 8186,
      "добра": 8187,
      "Антон": 8188,
      "скри": 8189,
      "охот": 8190,
      "ракетных": 8191,
      "обычно": 8192,
      "ктики": 8193,
      "попросили": 8194,
      "выступили": 8195,
      "Видеозапись": 8196,
      "девочки": 8197,
      "Манче": 8198,
      "Зенит": 8199,
      "Алексея": 8200,
      "приоритет": 8201,
      "Адвокат": 8202,
      "53": 8203,
      "Fox": 8204,
      "ler": 8205,
      "Вскоре": 8206,
      "ЛДП": 8207,
      "двой": 8208,
      "кофе": 8209,
      "лагер": 8210,
      "дим": 8211,
      "изба": 8212,
      "разрешения": 8213,
      "бина": 8214,
      "целей": 8215,
      "Нам": 8216,
      "Нафто": 8217,
      "правило": 8218,
      "действиях": 8219,
      "версия": 8220,
      "бойца": 8221,
      "гражданства": 8222,
      "Мол": 8223,
      "примеру": 8224,
      "обыгра": 8225,
      "покупателей": 8226,
      "современных": 8227,
      "Скрипаль": 8228,
      "воздушного": 8229,
      "объяснили": 8230,
      "областного": 8231,
      "Дениса": 8232,
      "молодежи": 8233,
      "радиостанции": 8234,
      "вшееся": 8235,
      "ребря": 8236,
      "Авторы": 8237,
      "Ира": 8238,
      "Оста": 8239,
      "пья": 8240,
      "схва": 8241,
      "тку": 8242,
      "зами": 8243,
      "задействова": 8244,
      "немедленно": 8245,
      "вании": 8246,
      "доходы": 8247,
      "конфи": 8248,
      "билет": 8249,
      "Народ": 8250,
      "тивные": 8251,
      "степени": 8252,
      "Анге": 8253,
      "обвинений": 8254,
      "владе": 8255,
      "человеком": 8256,
      "снять": 8257,
      "брони": 8258,
      "ходатай": 8259,
      "желание": 8260,
      "выросли": 8261,
      "согласился": 8262,
      "информационный": 8263,
      "законодательства": 8264,
      "народа": 8265,
      "пошлины": 8266,
      "волосы": 8267,
      "института": 8268,
      "Объединен": 8269,
      "субъект": 8270,
      "Роскосмоса": 8271,
      "психологи": 8272,
      "Morning": 8273,
      "Кудряв": 8274,
      "72": 8275,
      "for": 8276,
      "Эль": 8277,
      "пот": 8278,
      "послу": 8279,
      "неве": 8280,
      "тео": 8281,
      "воров": 8282,
      "лони": 8283,
      "дочер": 8284,
      "диви": 8285,
      "числи": 8286,
      "чивать": 8287,
      "сал": 8288,
      "ровало": 8289,
      "шель": 8290,
      "долгов": 8291,
      "полуострова": 8292,
      "рье": 8293,
      "ind": 8294,
      "Институ": 8295,
      "корре": 8296,
      "втори": 8297,
      "показала": 8298,
      "месяце": 8299,
      "нападение": 8300,
      "проверка": 8301,
      "депутаты": 8302,
      "субси": 8303,
      "торговли": 8304,
      "Люди": 8305,
      "предположил": 8306,
      "дальнейшем": 8307,
      "газопровода": 8308,
      "холдин": 8309,
      "ЛДПР": 8310,
      "BBC": 8311,
      "Light": 8312,
      "Цель": 8313,
      "зю": 8314,
      "фов": 8315,
      "цкий": 8316,
      "шно": 8317,
      "юсти": 8318,
      "енной": 8319,
      "конец": 8320,
      "реформы": 8321,
      "литера": 8322,
      "гоне": 8323,
      "кистана": 8324,
      "вига": 8325,
      "матер": 8326,
      "бывшей": 8327,
      "стражей": 8328,
      "ленная": 8329,
      "пласти": 8330,
      "вреда": 8331,
      "Маск": 8332,
      "поздра": 8333,
      "видеозапись": 8334,
      "Европу": 8335,
      "проекту": 8336,
      "использовали": 8337,
      "основных": 8338,
      "конкурс": 8339,
      "Кришти": 8340,
      "коммуника": 8341,
      "изоля": 8342,
      "проходил": 8343,
      "бороться": 8344,
      "камеру": 8345,
      "Павла": 8346,
      "доброволь": 8347,
      "Уильямс": 8348,
      "Благода": 8349,
      "Губернатор": 8350,
      "Криштиану": 8351,
      "61": 8352,
      "74": 8353,
      "Игра": 8354,
      "Испо": 8355,
      "Кто": 8356,
      "Лос": 8357,
      "Спар": 8358,
      "Ушак": 8359,
      "нным": 8360,
      "пролива": 8361,
      "ческими": 8362,
      "2024": 8363,
      "няет": 8364,
      "цену": 8365,
      "тысяча": 8366,
      "импорт": 8367,
      "телефона": 8368,
      "класс": 8369,
      "опубликовали": 8370,
      "ложить": 8371,
      "вопросов": 8372,
      "использованием": 8373,
      "обратило": 8374,
      "проблему": 8375,
      "поселке": 8376,
      "популярных": 8377,
      "умерла": 8378,
      "поддержал": 8379,
      "Тимо": 8380,
      "Национального": 8381,
      "Следова": 8382,
      "Последний": 8383,
      "ФИФА": 8384,
      "юстиции": 8385,
      "78": 8386,
      "ГБ": 8387,
      "Именно": 8388,
      "Коб": 8389,
      "устраи": 8390,
      "щением": 8391,
      "ьем": 8392,
      "пога": 8393,
      "зара": 8394,
      "содержи": 8395,
      "маги": 8396,
      "примут": 8397,
      "ведут": 8398,
      "путь": 8399,
      "предпо": 8400,
      "сообщали": 8401,
      "началось": 8402,
      "черный": 8403,
      "добавили": 8404,
      "Вален": 8405,
      "тяж": 8406,
      "имеется": 8407,
      "авиации": 8408,
      "национального": 8409,
      "экономической": 8410,
      "отправился": 8411,
      "предлагает": 8412,
      "пенсионной": 8413,
      "должностных": 8414,
      "связанных": 8415,
      "отравлении": 8416,
      "Америки": 8417,
      "Анатолий": 8418,
      "компьютер": 8419,
      "МК": 8420,
      "Счет": 8421,
      "браз": 8422,
      "зрева": 8423,
      "ощу": 8424,
      "ука": 8425,
      "штей": 8426,
      "стых": 8427,
      "вай": 8428,
      "медве": 8429,
      "пару": 8430,
      "выпуск": 8431,
      "през": 8432,
      "Подо": 8433,
      "российскому": 8434,
      "действуют": 8435,
      "телеви": 8436,
      "относятся": 8437,
      "ционно": 8438,
      "обеспоко": 8439,
      "признать": 8440,
      "считать": 8441,
      "личные": 8442,
      "серва": 8443,
      "ведется": 8444,
      "комплексы": 8445,
      "лидеры": 8446,
      "игнори": 8447,
      "формирования": 8448,
      "жертвами": 8449,
      "скорости": 8450,
      "применения": 8451,
      "Alert": 8452,
      "снизить": 8453,
      "покупки": 8454,
      "гостиницы": 8455,
      "розыск": 8456,
      "въезд": 8457,
      "усилия": 8458,
      "Флори": 8459,
      "нравится": 8460,
      "WADA": 8461,
      "Пента": 8462,
      "алюми": 8463,
      "уд": 8464,
      "удо": 8465,
      "кости": 8466,
      "заподоз": 8467,
      "прока": 8468,
      "сестра": 8469,
      "жая": 8470,
      "шева": 8471,
      "Украиной": 8472,
      "org": 8473,
      "местный": 8474,
      "2001": 8475,
      "транзи": 8476,
      "очередной": 8477,
      "Леони": 8478,
      "чиновники": 8479,
      "состава": 8480,
      "заключенного": 8481,
      "Кремль": 8482,
      "Скрипалей": 8483,
      "форуме": 8484,
      "сохранить": 8485,
      "коллеги": 8486,
      "Борис": 8487,
      "Зенита": 8488,
      "Источник": 8489,
      "подробности": 8490,
      "подозревают": 8491,
      "эвакуи": 8492,
      "Степаненко": 8493,
      "Спартак": 8494,
      "800": 8495,
      "ry": 8496,
      "хранения": 8497,
      "покон": 8498,
      "тед": 8499,
      "дию": 8500,
      "приложения": 8501,
      "стить": 8502,
      "сухо": 8503,
      "Роснефть": 8504,
      "женные": 8505,
      "пыток": 8506,
      "Каждый": 8507,
      "лыми": 8508,
      "черно": 8509,
      "взлет": 8510,
      "новая": 8511,
      "противника": 8512,
      "созданию": 8513,
      "Рого": 8514,
      "2006": 8515,
      "маркет": 8516,
      "тельством": 8517,
      "десятки": 8518,
      "вызвало": 8519,
      "питания": 8520,
      "политического": 8521,
      "опубликованном": 8522,
      "игрока": 8523,
      "правительством": 8524,
      "относится": 8525,
      "научно": 8526,
      "вступил": 8527,
      "ущерба": 8528,
      "мировых": 8529,
      "Абсолютного": 8530,
      "подразделения": 8531,
      "Динамо": 8532,
      "Sou": 8533,
      "Th": 8534,
      "XX": 8535,
      "Уз": 8536,
      "псе": 8537,
      "тности": 8538,
      "увидеть": 8539,
      "посты": 8540,
      "поставля": 8541,
      "запрос": 8542,
      "тировать": 8543,
      "выходе": 8544,
      "сумел": 8545,
      "расчет": 8546,
      "рованию": 8547,
      "жене": 8548,
      "Воро": 8549,
      "известных": 8550,
      "оставля": 8551,
      "продать": 8552,
      "общественных": 8553,
      "Проект": 8554,
      "британской": 8555,
      "ical": 8556,
      "достигает": 8557,
      "определя": 8558,
      "выплаты": 8559,
      "сельского": 8560,
      "бесплат": 8561,
      "оборудование": 8562,
      "ресурсов": 8563,
      "Йорке": 8564,
      "потребитель": 8565,
      "отреагировал": 8566,
      "World": 8567,
      "АН": 8568,
      "появля": 8569,
      "нео": 8570,
      "табли": 8571,
      "доступа": 8572,
      "ципли": 8573,
      "отстран": 8574,
      "мега": 8575,
      "выделя": 8576,
      "жиль": 8577,
      "суме": 8578,
      "ровались": 8579,
      "база": 8580,
      "правилам": 8581,
      "находиться": 8582,
      "показать": 8583,
      "Вай": 8584,
      "владелец": 8585,
      "исследователи": 8586,
      "подчеркнули": 8587,
      "Комсомо": 8588,
      "образование": 8589,
      "тяжелом": 8590,
      "сложно": 8591,
      "Кремле": 8592,
      "Абду": 8593,
      "события": 8594,
      "матчах": 8595,
      "тюрьме": 8596,
      "изменить": 8597,
      "покупку": 8598,
      "извинения": 8599,
      "очевидцев": 8600,
      "обнаружено": 8601,
      "самопровозглашенной": 8602,
      "канониче": 8603,
      "субъектов": 8604,
      "RT": 8605,
      "man": 8606,
      "ua": 8607,
      "КБ": 8608,
      "ЧМ": 8609,
      "фрон": 8610,
      "лиш": 8611,
      "задолжен": 8612,
      "проходят": 8613,
      "избра": 8614,
      "гасе": 8615,
      "овок": 8616,
      "нутся": 8617,
      "гиган": 8618,
      "раздо": 8619,
      "планы": 8620,
      "полной": 8621,
      "полтора": 8622,
      "снижения": 8623,
      "ank": 8624,
      "видели": 8625,
      "назвать": 8626,
      "создана": 8627,
      "сайт": 8628,
      "называет": 8629,
      "площадь": 8630,
      "содержание": 8631,
      "площадью": 8632,
      "Чечне": 8633,
      "бизнесмена": 8634,
      "поставок": 8635,
      "характера": 8636,
      "пожаловался": 8637,
      "свадьбу": 8638,
      "Бердянск": 8639,
      "Lightning": 8640,
      "62": 8641,
      "nal": 8642,
      "Пот": 8643,
      "Свер": 8644,
      "еду": 8645,
      "сби": 8646,
      "сфотографи": 8647,
      "ног": 8648,
      "решением": 8649,
      "недалеко": 8650,
      "иня": 8651,
      "гая": 8652,
      "ряс": 8653,
      "щается": 8654,
      "ставит": 8655,
      "торже": 8656,
      "вяза": 8657,
      "рованного": 8658,
      "ждены": 8659,
      "заключение": 8660,
      "дорого": 8661,
      "официального": 8662,
      "основной": 8663,
      "легко": 8664,
      "собираются": 8665,
      "Жители": 8666,
      "политических": 8667,
      "связанные": 8668,
      "аппарата": 8669,
      "изнасиловании": 8670,
      "анонсировал": 8671,
      "Валерий": 8672,
      "ликвидации": 8673,
      "работода": 8674,
      "Assoc": 8675,
      "Чемпионат": 8676,
      "Вос": 8677,
      "ДНК": 8678,
      "Ирина": 8679,
      "Мор": 8680,
      "Стив": 8681,
      "днем": 8682,
      "есте": 8683,
      "справед": 8684,
      "гомо": 8685,
      "риса": 8686,
      "титься": 8687,
      "руках": 8688,
      "циал": 8689,
      "мал": 8690,
      "мами": 8691,
      "изначально": 8692,
      "жид": 8693,
      "сообщал": 8694,
      "стера": 8695,
      "делают": 8696,
      "Каза": 8697,
      "говорилось": 8698,
      "Кир": 8699,
      "признает": 8700,
      "защитить": 8701,
      "организаторы": 8702,
      "развивать": 8703,
      "статьям": 8704,
      "Сева": 8705,
      "женщине": 8706,
      "соответствует": 8707,
      "Федо": 8708,
      "городского": 8709,
      "администрация": 8710,
      "мальчик": 8711,
      "коллекцию": 8712,
      "доказательства": 8713,
      "осужденных": 8714,
      "устроил": 8715,
      "телеведущей": 8716,
      "Результаты": 8717,
      "Gl": 8718,
      "Иран": 8719,
      "наря": 8720,
      "тему": 8721,
      "кине": 8722,
      "киев": 8723,
      "моск": 8724,
      "разо": 8725,
      "верное": 8726,
      "торгово": 8727,
      "ровом": 8728,
      "считал": 8729,
      "обвинению": 8730,
      "2005": 8731,
      "главной": 8732,
      "следующем": 8733,
      "лайнера": 8734,
      "предложила": 8735,
      "получат": 8736,
      "большого": 8737,
      "брендов": 8738,
      "китайского": 8739,
      "арестован": 8740,
      "водах": 8741,
      "повреждения": 8742,
      "эксперимента": 8743,
      "Ювентус": 8744,
      "Sky": 8745,
      "Science": 8746,
      "АЭ": 8747,
      "НИ": 8748,
      "нки": 8749,
      "почув": 8750,
      "поиска": 8751,
      "тони": 8752,
      "обна": 8753,
      "лоне": 8754,
      "кух": 8755,
      "гапу": 8756,
      "нулся": 8757,
      "ровых": 8758,
      "подклю": 8759,
      "ниями": 8760,
      "концу": 8761,
      "екта": 8762,
      "публично": 8763,
      "объяс": 8764,
      "зоо": 8765,
      "война": 8766,
      "фоло": 8767,
      "рейс": 8768,
      "представителями": 8769,
      "состояния": 8770,
      "Витали": 8771,
      "высокие": 8772,
      "единиц": 8773,
      "Первая": 8774,
      "фильмах": 8775,
      "давления": 8776,
      "мероприятие": 8777,
      "беспла": 8778,
      "родственников": 8779,
      "Владимиру": 8780,
      "отменить": 8781,
      "Всемирной": 8782,
      "секунд": 8783,
      "предусматривает": 8784,
      "Reddit": 8785,
      "Бур": 8786,
      "МФ": 8787,
      "стрий": 8788,
      "лиди": 8789,
      "кап": 8790,
      "застре": 8791,
      "тату": 8792,
      "сибо": 8793,
      "селе": 8794,
      "нужда": 8795,
      "битра": 8796,
      "сообщают": 8797,
      "никакого": 8798,
      "тические": 8799,
      "хиру": 8800,
      "проведении": 8801,
      "спикер": 8802,
      "командой": 8803,
      "победил": 8804,
      "Арсен": 8805,
      "груди": 8806,
      "установки": 8807,
      "срока": 8808,
      "утверждению": 8809,
      "ington": 8810,
      "третье": 8811,
      "землю": 8812,
      "называется": 8813,
      "ющейся": 8814,
      "завершился": 8815,
      "завершилась": 8816,
      "заседание": 8817,
      "полученных": 8818,
      "поддерживает": 8819,
      "прокурор": 8820,
      "посольства": 8821,
      "живут": 8822,
      "свободу": 8823,
      "Нападающий": 8824,
      "Макгрегором": 8825,
      "Bre": 8826,
      "En": 8827,
      "One": 8828,
      "Ква": 8829,
      "МО": 8830,
      "ждет": 8831,
      "нью": 8832,
      "окре": 8833,
      "тном": 8834,
      "лаш": 8835,
      "завет": 8836,
      "просмот": 8837,
      "скоп": 8838,
      "выпущен": 8839,
      "бота": 8840,
      "кури": 8841,
      "жив": 8842,
      "мусо": 8843,
      "контин": 8844,
      "денти": 8845,
      "лейтен": 8846,
      "долг": 8847,
      "добро": 8848,
      "хищ": 8849,
      "провела": 8850,
      "ющему": 8851,
      "ьяна": 8852,
      "самолете": 8853,
      "участии": 8854,
      "напад": 8855,
      "гражданство": 8856,
      "школу": 8857,
      "выступать": 8858,
      "специально": 8859,
      "медицинской": 8860,
      "высокопостав": 8861,
      "интересы": 8862,
      "рассказывает": 8863,
      "Варфоло": 8864,
      "столкновения": 8865,
      "характеристи": 8866,
      "Полицейские": 8867,
      "Татьяна": 8868,
      "режиссера": 8869,
      "хулиган": 8870,
      "Монако": 8871,
      "Bla": 8872,
      "Тот": 8873,
      "брас": 8874,
      "чкой": 8875,
      "элит": 8876,
      "южно": 8877,
      "настолько": 8878,
      "невосто": 8879,
      "продоволь": 8880,
      "отсле": 8881,
      "паспорт": 8882,
      "самая": 8883,
      "подсчет": 8884,
      "менко": 8885,
      "последу": 8886,
      "шенные": 8887,
      "Примо": 8888,
      "Владислав": 8889,
      "пыталась": 8890,
      "фай": 8891,
      "запретить": 8892,
      "товари": 8893,
      "портале": 8894,
      "улицу": 8895,
      "посеща": 8896,
      "видит": 8897,
      "сексуальных": 8898,
      "журнал": 8899,
      "рассматривает": 8900,
      "отверсти": 8901,
      "НДС": 8902,
      "космонав": 8903,
      "порядок": 8904,
      "бразиль": 8905,
      "Севасто": 8906,
      "che": 8907,
      "Есть": 8908,
      "Ио": 8909,
      "Мис": 8910,
      "Оно": 8911,
      "Ци": 8912,
      "Шну": 8913,
      "дре": 8914,
      "уме": 8915,
      "чт": 8916,
      "юр": 8917,
      "расту": 8918,
      "нибудь": 8919,
      "голу": 8920,
      "гораздо": 8921,
      "зала": 8922,
      "неделе": 8923,
      "лежит": 8924,
      "дип": 8925,
      "гали": 8926,
      "жие": 8927,
      "страной": 8928,
      "бами": 8929,
      "долга": 8930,
      "теря": 8931,
      "произведен": 8932,
      "Капу": 8933,
      "фель": 8934,
      "известного": 8935,
      "находилась": 8936,
      "нены": 8937,
      "управлении": 8938,
      "карпа": 8939,
      "медиа": 8940,
      "думал": 8941,
      "учили": 8942,
      "воздуха": 8943,
      "двигателей": 8944,
      "медицинских": 8945,
      "убежи": 8946,
      "магазине": 8947,
      "капитала": 8948,
      "вызывает": 8949,
      "Пенси": 8950,
      "ОПЕК": 8951,
      "Уэст": 8952,
      "побережья": 8953,
      "разведыва": 8954,
      "эффект": 8955,
      "Благодаря": 8956,
      "Ушаковой": 8957,
      "La": 8958,
      "ov": 8959,
      "ЦАР": 8960,
      "брю": 8961,
      "иденти": 8962,
      "оставил": 8963,
      "настро": 8964,
      "кает": 8965,
      "некоторое": 8966,
      "примет": 8967,
      "принес": 8968,
      "приступи": 8969,
      "выйдет": 8970,
      "ровке": 8971,
      "турой": 8972,
      "акция": 8973,
      "знак": 8974,
      "знают": 8975,
      "ально": 8976,
      "передать": 8977,
      "ударов": 8978,
      "хии": 8979,
      "операций": 8980,
      "фамили": 8981,
      "ситуацией": 8982,
      "письме": 8983,
      "итоги": 8984,
      "лайков": 8985,
      "бросил": 8986,
      "активность": 8987,
      "направлены": 8988,
      "направлении": 8989,
      "полицейского": 8990,
      "пункт": 8991,
      "травму": 8992,
      "пропал": 8993,
      "Михаила": 8994,
      "ock": 8995,
      "рекоменда": 8996,
      "начнется": 8997,
      "пациент": 8998,
      "прокурора": 8999,
      "Иркут": 9000,
      "слово": 9001,
      "Мурман": 9002,
      "неожидан": 9003,
      "South": 9004,
      "son": 9005,
      "Изнача": 9006,
      "Кли": 9007,
      "Эл": 9008,
      "атом": 9009,
      "длов": 9010,
      "звезда": 9011,
      "тными": 9012,
      "поправки": 9013,
      "премию": 9014,
      "ровалось": 9015,
      "плака": 9016,
      "плане": 9017,
      "ana": 9018,
      "Тарас": 9019,
      "возможным": 9020,
      "украинцев": 9021,
      "джин": 9022,
      "новости": 9023,
      "сталки": 9024,
      "пустить": 9025,
      "способен": 9026,
      "обратиться": 9027,
      "структур": 9028,
      "etro": 9029,
      "существенно": 9030,
      "получает": 9031,
      "аэропортов": 9032,
      "террористов": 9033,
      "политической": 9034,
      "взял": 9035,
      "демонстра": 9036,
      "карьеры": 9037,
      "Игоря": 9038,
      "правительстве": 9039,
      "поделилась": 9040,
      "родственники": 9041,
      "обстоятельства": 9042,
      "Кирилл": 9043,
      "Саратов": 9044,
      "певца": 9045,
      "диагностировали": 9046,
      "Венгрии": 9047,
      "ron": 9048,
      "ДА": 9049,
      "Кэ": 9050,
      "Кра": 9051,
      "Опера": 9052,
      "Хотя": 9053,
      "аны": 9054,
      "амери": 9055,
      "гин": 9056,
      "ером": 9057,
      "шке": 9058,
      "швей": 9059,
      "енного": 9060,
      "порти": 9061,
      "затро": 9062,
      "зим": 9063,
      "онаблю": 9064,
      "веру": 9065,
      "красо": 9066,
      "билеты": 9067,
      "спорти": 9068,
      "долги": 9069,
      "телевид": 9070,
      "видеонаблю": 9071,
      "считаю": 9072,
      "драки": 9073,
      "остаются": 9074,
      "финал": 9075,
      "Трампом": 9076,
      "сделала": 9077,
      "имел": 9078,
      "пенсии": 9079,
      "полицейский": 9080,
      "мероприятии": 9081,
      "ada": 9082,
      "язык": 9083,
      "попытку": 9084,
      "предпринимателей": 9085,
      "инициативы": 9086,
      "вечерин": 9087,
      "Возбу": 9088,
      "искусства": 9089,
      "подверг": 9090,
      "подростков": 9091,
      "Хабиб": 9092,
      "выглядит": 9093,
      "пилотиру": 9094,
      "моделей": 9095,
      "Слава": 9096,
      "индустрии": 9097,
      "Правительство": 9098,
      "сочли": 9099,
      "Без": 9100,
      "Впервые": 9101,
      "Клин": 9102,
      "Спи": 9103,
      "входя": 9104,
      "дне": 9105,
      "зен": 9106,
      "крово": 9107,
      "нное": 9108,
      "цог": 9109,
      "яд": 9110,
      "поединок": 9111,
      "нит": 9112,
      "рик": 9113,
      "рист": 9114,
      "вало": 9115,
      "тились": 9116,
      "мото": 9117,
      "доли": 9118,
      "мара": 9119,
      "рыно": 9120,
      "гип": 9121,
      "Пом": 9122,
      "следы": 9123,
      "ленное": 9124,
      "обратно": 9125,
      "передал": 9126,
      "двусторон": 9127,
      "Бел": 9128,
      "Петрова": 9129,
      "статья": 9130,
      "дороге": 9131,
      "порации": 9132,
      "процессе": 9133,
      "ющимся": 9134,
      "выяснить": 9135,
      "серьезные": 9136,
      "Донбасса": 9137,
      "видим": 9138,
      "помещения": 9139,
      "дисципли": 9140,
      "спроса": 9141,
      "химического": 9142,
      "КПРФ": 9143,
      "Журналист": 9144,
      "другую": 9145,
      "Олимпийских": 9146,
      "Вячеслав": 9147,
      "Елизавет": 9148,
      "Спартака": 9149,
      "Associat": 9150,
      "Car": 9151,
      "Mer": 9152,
      "ff": 9153,
      "Ас": 9154,
      "недостаточно": 9155,
      "тебе": 9156,
      "ставок": 9157,
      "зию": 9158,
      "переме": 9159,
      "участвовал": 9160,
      "защиту": 9161,
      "судья": 9162,
      "убили": 9163,
      "сайта": 9164,
      "учений": 9165,
      "способны": 9166,
      "повышении": 9167,
      "Керчи": 9168,
      "щиеся": 9169,
      "контракта": 9170,
      "сократить": 9171,
      "поддержать": 9172,
      "объекта": 9173,
      "Адмирал": 9174,
      "картины": 9175,
      "распространение": 9176,
      "означает": 9177,
      "ужас": 9178,
      "эксплуатацию": 9179,
      "обруши": 9180,
      "Кейт": 9181,
      "осенью": 9182,
      "Черчесов": 9183,
      "Известно": 9184,
      "Изначально": 9185,
      "IB": 9186,
      "Азии": 9187,
      "вь": 9188,
      "фрак": 9189,
      "шос": 9190,
      "заставля": 9191,
      "даст": 9192,
      "обстанов": 9193,
      "дился": 9194,
      "отме": 9195,
      "пары": 9196,
      "приготов": 9197,
      "веще": 9198,
      "педа": 9199,
      "пище": 9200,
      "разные": 9201,
      "бабу": 9202,
      "ленными": 9203,
      "вете": 9204,
      "довать": 9205,
      "войне": 9206,
      "ужесто": 9207,
      "ционным": 9208,
      "результатов": 9209,
      "министром": 9210,
      "задержания": 9211,
      "установлено": 9212,
      "играть": 9213,
      "автомобили": 9214,
      "Франция": 9215,
      "вызвала": 9216,
      "продолжается": 9217,
      "доступен": 9218,
      "проводит": 9219,
      "прокомментировала": 9220,
      "могло": 9221,
      "Константин": 9222,
      "предприниматель": 9223,
      "Центрального": 9224,
      "музыкант": 9225,
      "коррупции": 9226,
      "боксерской": 9227,
      "клетки": 9228,
      "Яндекс": 9229,
      "автобус": 9230,
      "Самолет": 9231,
      "преподава": 9232,
      "Брюссе": 9233,
      "Ожидается": 9234,
      "ust": 9235,
      "Автор": 9236,
      "Спа": 9237,
      "Сбор": 9238,
      "Том": 9239,
      "уку": 9240,
      "пошу": 9241,
      "решений": 9242,
      "нину": 9243,
      "общение": 9244,
      "левой": 9245,
      "кибе": 9246,
      "диться": 9247,
      "ляцию": 9248,
      "вымога": 9249,
      "пилот": 9250,
      "кера": 9251,
      "детских": 9252,
      "стрее": 9253,
      "Коло": 9254,
      "взлома": 9255,
      "проверить": 9256,
      "услыша": 9257,
      "авторов": 9258,
      "Пашин": 9259,
      "Виктора": 9260,
      "активов": 9261,
      "налога": 9262,
      "ограничен": 9263,
      "НАМИ": 9264,
      "НАСА": 9265,
      "опти": 9266,
      "задач": 9267,
      "китайской": 9268,
      "незаконно": 9269,
      "Керченский": 9270,
      "Международная": 9271,
      "министерство": 9272,
      "отделение": 9273,
      "железнодорожного": 9274,
      "расстоянии": 9275,
      "знаменито": 9276,
      "мульт": 9277,
      "Манчестер": 9278,
      "Узбе": 9279,
      "Тран": 9280,
      "введение": 9281,
      "дца": 9282,
      "жин": 9283,
      "кета": 9284,
      "лс": 9285,
      "смяг": 9286,
      "побо": 9287,
      "номера": 9288,
      "рика": 9289,
      "леш": 9290,
      "декла": 9291,
      "болов": 9292,
      "гана": 9293,
      "ковым": 9294,
      "студии": 9295,
      "всеми": 9296,
      "ант": 9297,
      "четверо": 9298,
      "ответить": 9299,
      "тическим": 9300,
      "ang": 9301,
      "Сал": 9302,
      "личности": 9303,
      "Несколько": 9304,
      "продав": 9305,
      "автомобиле": 9306,
      "угрозой": 9307,
      "терапи": 9308,
      "ребенком": 9309,
      "экономику": 9310,
      "опасности": 9311,
      "продолжать": 9312,
      "партия": 9313,
      "совершить": 9314,
      "памяти": 9315,
      "отвергает": 9316,
      "финансирование": 9317,
      "футбольного": 9318,
      "Мэйуэ": 9319,
      "появления": 9320,
      "недостаточ": 9321,
      "ЖКХ": 9322,
      "взятки": 9323,
      "Известия": 9324,
      "con": 9325,
      "ies": 9326,
      "Кла": 9327,
      "Соб": 9328,
      "Хер": 9329,
      "Юнай": 9330,
      "дят": 9331,
      "росток": 9332,
      "рией": 9333,
      "прохо": 9334,
      "рыба": 9335,
      "Подоб": 9336,
      "мур": 9337,
      "бук": 9338,
      "значение": 9339,
      "Нача": 9340,
      "обоих": 9341,
      "войну": 9342,
      "щена": 9343,
      "осталось": 9344,
      "крип": 9345,
      "ams": 9346,
      "ссыла": 9347,
      "ate": 9348,
      "Лит": 9349,
      "единение": 9350,
      "другое": 9351,
      "компаниям": 9352,
      "национальных": 9353,
      "основатель": 9354,
      "выполнять": 9355,
      "тяжело": 9356,
      "упала": 9357,
      "связей": 9358,
      "памят": 9359,
      "вынуждены": 9360,
      "соперника": 9361,
      "Единой": 9362,
      "приблизи": 9363,
      "несовершеннолетних": 9364,
      "мундиа": 9365,
      "вспы": 9366,
      "Венесу": 9367,
      "гиперзву": 9368,
      "шоссе": 9369,
      "Юнайтед": 9370,
      "ct": 9371,
      "Авто": 9372,
      "Оре": 9373,
      "Фина": 9374,
      "Шой": 9375,
      "вку": 9376,
      "ввел": 9377,
      "риска": 9378,
      "лая": 9379,
      "закупа": 9380,
      "льность": 9381,
      "причем": 9382,
      "вера": 9383,
      "стиму": 9384,
      "шир": 9385,
      "границ": 9386,
      "хачка": 9387,
      "довер": 9388,
      "Причина": 9389,
      "информацией": 9390,
      "названия": 9391,
      "организацию": 9392,
      "сделано": 9393,
      "продолжить": 9394,
      "позиция": 9395,
      "Минфин": 9396,
      "задачи": 9397,
      "довольно": 9398,
      "старший": 9399,
      "внешне": 9400,
      "удиви": 9401,
      "супруги": 9402,
      "владельца": 9403,
      "неприят": 9404,
      "столичного": 9405,
[...]
